[PAD]
[UNK]
[CLS]
[SEP]
[MASK]
!
"
#
$
%
&
'
(
)
*
+
,
-
.
/
0
1
2
3
4
5
6
7
8
9
:
;
<
=
>
?
@
A
B
C
D
E
F
G
H
I
J
K
L
M
N
O
P
Q
R
S
T
U
V
W
X
Y
Z
[
\
]
^
_
`
a
b
c
d
e
f
g
h
i
j
k
l
m
n
o
p
q
r
s
t
u
v
w
x
y
z
{
|
}
~
§
©
°
±
²
¶
·
×
à
á
ä
ç
è
é
í
ó
ö
÷
ü
ā
ē
ī
ō
ə
ː
˙
α
β
δ
μ
ο
π
а
е
и
о
‐
–
—
―
‘
’
“
”
•
․
‥
…
‧
′
※
‼
℃
ℓ
™
⅓
⅔
Ⅰ
Ⅱ
Ⅲ
Ⅳ
Ⅴ
ⅰ
ⅱ
ⅲ
↑
→
↓
↔
⇒
−
∙
∨
∼
≪
≫
⊙
⎯
①
②
③
④
⑤
⑥
⑦
⑧
⑨
⑩
ⓐ
ⓑ
ⓒ
─
━
│
┃
■
□
▣
▪
▲
△
▶
▷
▼
◀
◆
◇
◉
○
◎
●
◦
◯
★
☆
☎
☞
☠
☺
♀
♂
♠
♡
♣
♥
⚪
⛔
✊
✌
✔
✨
✽
❌
❓
❗
❤
➡
⭐
⭕
⼒
、
。
〃
〈
〉
《
》
「
」
『
』
【
】
〔
〕
〜
あ
い
う
え
お
か
が
き
く
け
こ
さ
し
す
ず
そ
た
だ
ち
っ
つ
て
で
と
ど
な
に
ぬ
の
は
ば
ひ
ふ
へ
ま
み
む
め
も
や
よ
ら
り
る
れ
わ
を
ん
ン
・
ー
ㄱ
ㄲ
ㄴ
ㄷ
ㄸ
ㄹ
ㅁ
ㅂ
ㅃ
ㅄ
ㅅ
ㅆ
ㅇ
ㅈ
ㅉ
ㅊ
ㅋ
ㅌ
ㅍ
ㅎ
ㅏ
ㅐ
ㅑ
ㅓ
ㅔ
ㅕ
ㅗ
ㅛ
ㅜ
ㅠ
ㅡ
ㅢ
ㅣ
ㆍ
㈀
㈁
㈂
㈃
㈎
㈏
㈐
㈑
㈜
㉠
㉡
㉢
㉣
㉮
㉯
㎍
㎎
㎏
㎒
㎓
㎖
㎛
㎜
㎝
㎞
㎡
㎢
㎥
㎾
㎿
㏊
一
丁
七
丈
三
上
下
不
丑
且
世
丘
丙
丞
並
个
中
丸
丹
为
主
乃
久
么
之
乎
乘
乙
九
乞
也
乳
乾
亂
了
予
事
二
于
云
五
井
亞
亡
交
亥
亦
亨
京
亭
亮
人
什
仁
今
介
仕
他
付
仙
代
令
以
们
仰
仲
件
任
企
伊
伏
伐
休
会
伯
伴
似
但
位
低
住
佐
何
余
佛
作
你
佳
使
來
例
侍
供
依
侯
侵
便
係
俊
俗
保
信
修
俱
倉
個
倍
倒
候
借
倫
倭
假
偉
偏
停
健
傅
備
傳
傷
傾
像
僕
僞
僧
價
儀
儉
儒
優
允
元
兄
充
兆
先
光
克
免
兒
入
內
全
兩
八
公
六
兮
共
兵
其
具
典
兼
内
冊
再
冠
冥
冬
凡
凶
出
刀
分
切
刑
列
初
判
別
利
到
制
刺
刻
則
前
剛
副
創
劃
劇
劉
劍
力
功
加
助
劫
勇
勒
動
務
勝
勞
勢
勤
勳
勸
勿
包
化
北
匠
區
十
千
升
午
半
卑
卒
卓
協
南
博
卜
占
卦
卯
印
危
即
卷
卽
卿
厚
原
厥
去
參
又
及
友
反
叔
取
受
叢
口
古
句
只
召
可
台
史
右
司
各
合
吉
同
名
后
吏
吐
向
君
否
含
吳
吹
吾
呂
告
周
味
呼
命
和
咸
哀
品
哉
員
哭
哲
唐
唯
唱
商
問
啓
善
喜
喪
單
嗣
嘉
嘗
器
嚴
四
回
因
困
固
国
國
圍
園
圓
圖
團
土
在
地
均
坊
坐
坤
垂
型
城
域
執
基
堂
堅
堯
報
場
塔
塗
塞
塵
境
墓
增
墨
壁
壇
壤
士
壬
壯
壽
夏
夕
外
多
夜
夢
大
天
太
夫
失
夷
奇
奈
奉
奏
契
奔
奪
女
奴
好
如
妃
妄
妓
妖
妙
妻
始
姑
姓
委
姜
姬
威
婚
婢
婦
子
孔
字
存
孝
孟
季
孤
学
孫
學
宇
守
安
宋
完
宗
官
宙
定
宜
客
宣
室
宮
宰
害
宴
家
容
宿
寂
寄
寅
密
寇
富
寒
察
寡
實
寧
審
寫
寬
寶
寸
寺
封
射
將
專
尉
尊
尋
對
導
小
少
尙
尤
就
尹
尺
尼
尾
局
居
屈
屋
屍
展
層
屬
屯
山
岐
岡
岩
岳
岸
峯
峰
島
崇
崔
崩
嶺
巖
川
州
巡
工
左
巧
巨
巫
差
己
已
巳
巴
市
布
希
帝
帥
師
席
帶
常
幕
干
平
年
幸
幻
幼
幽
幾
床
序
底
店
庚
府
度
座
庫
庭
庵
庶
康
庸
廉
廟
廢
廣
廳
延
廷
建
式
弓
引
弗
弘
弟
弱
張
强
彈
彌
形
彦
彩
彭
影
役
彼
往
征
待
律
後
徐
徒
得
從
御
復
微
徵
德
心
必
忌
忍
志
忘
忠
快
念
忽
怒
思
急
性
怨
怪
恐
恒
恥
恨
恩
恭
息
悅
悔
悟
患
悲
情
惑
惟
惠
惡
想
愁
愈
意
愚
愛
感
愼
慈
態
慕
慧
慮
慶
慾
憂
憲
應
懷
懼
戊
戌
戎
成
我
戒
或
戰
戱
戴
戶
房
所
手
才
打
扶
承
技
投
抗
折
抱
拔
招
拜
拳
持
指
按
振
授
掌
採
接
推
提
揚
換
損
摩
撫
擇
擊
操
據
擧
攝
支
收
改
攻
放
政
故
效
敎
敏
救
敗
敢
散
敦
敬
整
敵
數
文
斗
料
斬
斯
新
斷
方
於
施
旅
旋
族
旗
无
旣
日
旨
早
时
昌
明
昏
易
昔
星
春
昭
是
時
晉
晋
晩
普
景
智
暗
暮
暴
曆
曉
曰
曲
更
書
曹
曺
曾
最
會
月
有
朋
服
朔
朕
望
朝
期
木
未
末
本
朱
朴
李
材
村
杖
杜
束
来
東
松
板
林
果
枝
某
柔
柱
柳
査
校
株
根
格
桂
桃
案
桑
桓
梁
梅
條
棄
植
楊
楚
業
極
榜
榮
構
樂
樓
標
樞
樹
橋
機
橫
檀
檢
權
次
欲
欽
歌
歎
歡
止
正
此
步
武
歲
歷
歸
死
殘
段
殷
殺
殿
毅
母
每
毒
比
毛
氏
民
氣
水
氷
永
汁
求
汗
汝
江
池
決
沈
沒
沙
河
油
治
泉
法
波
注
泰
洋
洗
洛
洞
津
洪
洲
活
派
流
浦
浩
浪
浮
海
消
涉
淑
淡
淨
淫
淮
深
淳
淵
混
淸
清
減
渡
港
渴
游
湖
湯
源
準
溪
溫
滅
滿
漁
演
漢
漸
潛
潤
潭
潮
澤
濕
濟
瀉
火
災
炎
炒
為
烈
烏
焉
無
焦
然
煎
煙
照
煩
熊
熙
熟
熱
燈
燒
燕
營
爭
爲
爵
父
爾
片
版
牌
牙
牛
牧
物
特
犬
犯
狀
狂
狗
独
猶
獄
獨
獲
獸
獻
玄
率
玉
王
珍
珠
班
現
球
理
琴
瑞
璋
環
甘
甚
生
産
用
甫
田
由
甲
申
男
町
界
畏
留
略
番
異
畵
當
疏
疑
疾
病
症
痛
痰
瘡
癸
登
發
白
百
的
皆
皇
皮
益
盛
盜
盟
盡
監
盤
盧
目
直
相
省
眉
看
眞
眼
着
督
矢
矣
知
短
石
砂
破
硏
碑
碧
磨
示
社
祀
祖
祝
神
祠
祥
祭
祿
禁
禍
福
禪
禮
禰
禹
禽
秀
私
秋
科
秘
租
秦
移
稅
程
種
稱
稷
穀
穆
積
穴
究
空
突
窓
窮
立
章
童
端
竹
笑
符
第
筆
等
筋
答
策
箕
算
管
箭
節
範
篇
築
簡
籍
米
粉
精
系
紀
約
紅
納
純
紙
級
素
索
紫
細
終
組
結
給
統
絲
絶
經
綠
維
綱
網
線
緣
編
縣
縱
總
織
繼
續
罪
置
罰
署
罷
羅
羊
美
群
義
羽
翁
習
翰
翼
老
考
者
而
耕
耳
耶
聖
聚
聞
聲
職
聽
肅
肉
肝
肥
育
肺
胃
背
胎
胡
胸
能
脈
脚
脫
脾
腎
腦
腸
腹
膏
膽
臣
臥
臨
自
至
致
臺
與
興
舊
舌
舍
舜
舞
舟
般
船
良
色
花
芳
苑
若
苦
英
茂
范
茶
草
荊
荒
莊
莫
菜
華
萬
落
葉
著
葛
董
葬
蒙
蒼
蓋
蓮
蔡
蕩
蕭
薄
薑
薩
藏
藝
藤
藥
藩
蘇
蘭
虎
處
虛
虞
號
蛇
蜀
蟲
血
衆
行
術
街
衛
衡
衣
表
衰
被
裁
裏
補
裝
製
襄
西
要
覆
覇
見
規
視
親
覺
覽
觀
角
解
言
計
討
訓
記
訣
訪
設
許
註
詔
評
詞
試
詩
話
詳
誅
誌
認
語
誠
誤
說
誰
調
談
請
論
諫
諸
謀
謂
謙
講
謝
謹
證
識
譜
警
譯
議
護
讀
變
讓
说
谷
豆
豈
豊
象
豪
豫
貞
負
財
貢
貧
貨
貪
貫
責
貴
買
費
賀
資
賈
賊
賓
賜
賞
賢
賣
賤
賦
質
贊
赤
走
起
超
越
趙
足
路
身
車
軍
軒
載
輔
輕
輩
輪
輿
轉
车
辛
辨
辭
辯
辰
辱
農
迎
近
这
述
迷
追
退
送
逆
逐
通
速
造
逢
連
進
逸
遂
遇
遊
運
過
道
達
違
遠
遣
適
遲
遷
選
遺
遼
避
還
邊
邑
那
邦
邪
郎
郞
郡
部
郭
都
鄕
鄭
酉
配
酒
酸
醉
醫
釋
里
重
野
量
金
針
銀
銅
銘
錄
錢
錦
錫
鍾
鎭
鏡
鐘
鐵
鑑
長
門
閉
開
閑
間
閔
閣
闕
關
门
防
阿
附
降
限
院
陣
除
陰
陳
陵
陶
陸
陽
隆
隊
階
際
隨
險
隱
雄
雅
集
雍
雖
雙
雜
離
難
雨
雪
雲
雷
電
震
霜
霧
露
靈
靑
靖
靜
非
面
革
韓
韩
音
韻
頂
項
順
須
領
頭
題
顔
願
類
顧
顯
風
飛
食
飮
飯
養
餘
館
首
香
馬
騎
騰
驗
驚
驛
骨
體
高
髮
鬪
鬱
鬼
魂
魏
魔
魚
魯
鮮
鳥
鳳
鳴
鴻
鶴
鷄
鹽
鹿
麗
麥
麻
黃
黑
點
黨
鼎
鼓
鼻
齊
齋
齒
龍
龜
가
각
간
갇
갈
갉
감
갑
값
갓
갔
강
갖
갗
같
갚
갛
개
객
갠
갤
갬
갭
갯
갰
갱
갸
걀
걍
걔
거
걱
건
걷
걸
검
겁
것
겄
겅
겆
겉
겊
겋
게
겐
겔
겜
겝
겟
겠
겡
겧
겨
격
겪
견
결
겸
겹
겻
겼
경
곁
계
곗
곘
고
곡
곤
곧
골
곪
곯
곰
곱
곳
공
곶
곸
과
곽
관
괄
괌
광
괘
괜
괞
괭
괴
괸
굉
교
굣
구
국
군
굳
굴
굵
굶
굼
굽
굿
궁
궂
궈
권
궐
궜
궤
귀
귄
귈
귐
귓
규
귝
균
귤
그
극
근
글
긁
금
급
긋
긍
긔
기
긱
긴
길
김
깁
깃
깄
깅
깉
깊
까
깍
깎
깐
깔
깜
깝
깟
깠
깡
깥
깨
깬
깰
깻
깼
깽
꺄
꺠
꺼
꺽
꺾
껀
껄
껌
껍
껏
껐
껑
께
껭
껴
꼇
꼈
꼐
꼬
꼭
꼰
꼴
꼼
꼽
꼿
꽁
꽂
꽃
꽈
꽉
꽝
꽤
꽥
꽹
꾀
꾸
꾹
꾼
꿀
꿇
꿈
꿉
꿋
꿍
꿎
꿔
꿨
꿩
꿰
뀌
뀐
뀔
뀜
뀝
끄
끈
끊
끌
끓
끔
끗
끙
끝
끠
끼
끽
낀
낄
낌
낍
낏
낑
나
낙
낚
난
낟
날
낡
남
납
낫
났
낭
낮
낯
낰
낱
낳
내
낵
낸
낼
냄
냅
냇
냈
냉
냐
냔
냘
냠
냥
냨
너
넉
넋
넌
널
넓
넘
넙
넛
넜
넝
넣
네
넥
넨
넬
넴
넵
넷
넸
넹
넼
녀
녁
년
념
녔
녕
녘
녜
노
녹
논
놀
놈
놉
놋
농
높
놓
놔
놧
놨
뇌
뇨
뇬
뇸
뇽
누
눅
눈
눌
눔
눕
눗
눙
눠
눴
눼
뉘
뉜
뉴
늄
늉
느
늑
는
늘
늙
늠
늣
능
늦
늪
늬
니
닉
닌
닐
님
닙
닛
닝
닠
닢
다
닥
닦
단
닫
달
닭
닮
닳
담
답
닷
당
닻
닼
닿
대
댁
댄
댈
댐
댑
댓
댔
댕
댜
더
덕
던
덜
덟
덤
덥
덧
덩
덫
덮
덯
데
덱
덴
델
뎀
뎁
뎃
뎅
뎈
뎌
뎠
뎨
도
독
돈
돋
돌
돔
돕
돗
동
돛
돠
돤
돼
됀
됄
됌
됏
됐
되
된
될
됨
됩
됫
됬
됴
두
둑
둔
둘
둠
둡
둣
둥
둬
뒀
뒈
뒤
뒷
뒹
듀
듈
듐
듕
드
득
든
듣
들
듦
듬
듭
듯
등
듸
디
딕
딘
딛
딜
딤
딥
딧
딨
딩
딪
따
딱
딲
딴
딸
땀
땃
땄
땅
땋
때
땍
땐
땔
땜
땟
땠
땡
떄
떠
떡
떤
떨
떫
떳
떴
떵
떻
떼
뗀
뗄
뗏
뗐
또
똑
똘
똥
똬
뙈
뙤
뚜
뚝
뚤
뚫
뚱
뛰
뛴
뛸
뜀
뜨
뜩
뜬
뜯
뜰
뜸
뜻
띁
띄
띈
띌
띔
띠
띤
띨
띵
라
락
란
랄
람
랍
랏
랐
랑
랔
랖
랗
래
랙
랜
랠
램
랩
랫
랬
랭
랰
랴
략
량
러
럭
런
럴
럼
럽
럿
렀
렁
렇
레
렉
렌
렐
렘
렙
렛
렝
려
력
련
렬
렴
렵
렷
렸
령
례
롄
로
록
론
롤
롬
롭
롯
롱
롸
뢀
뢰
료
룡
루
룩
룬
룰
룸
룹
룻
룽
뤄
뤘
뤠
뤼
류
륙
륜
률
륨
륭
르
륵
른
를
름
릅
릇
릉
릎
리
릭
린
릴
림
립
릿
링
마
막
만
많
맏
말
맑
맘
맙
맛
망
맞
맟
맡
맣
매
맥
맨
맬
맴
맵
맷
맸
맹
맺
먀
먄
머
먹
먼
멀
멈
멋
멍
멎
멓
메
멕
멘
멜
멤
멧
멩
며
멱
면
멸
몀
몃
몄
명
몆
몇
모
목
몫
몬
몰
몸
몹
못
몽
몾
뫼
묘
무
묵
묶
문
묻
물
묽
뭄
뭇
뭉
뭍
뭏
뭐
뭔
뭘
뭡
뭣
뭥
뮈
뮌
뮐
뮤
뮨
뮬
뮴
므
믄
믈
믐
믓
믜
미
믹
민
믿
밀
밈
밉
밋
밌
밍
밎
및
밑
바
박
밖
반
받
발
밝
밟
밣
밤
밥
밧
방
밭
배
백
밴
밷
밸
뱀
뱁
뱃
뱅
뱉
뱌
버
벅
번
벋
벌
범
법
벗
벙
벚
베
벡
벤
벨
벳
벵
벼
벽
변
별
볍
볏
볐
병
볕
보
복
볶
본
볼
봄
봅
봇
봉
봐
봣
봤
봬
뵈
뵌
뵐
뵙
부
북
분
붇
불
붉
붐
붓
붕
붙
뷔
뷰
뷴
뷸
븅
브
븐
블
비
빅
빈
빌
빔
빕
빗
빙
빚
빛
빠
빡
빤
빨
빰
빳
빴
빵
빻
빼
빽
뺀
뺄
뺌
뺏
뺐
뺑
뺨
뺴
뻐
뻑
뻔
뻗
뻘
뻣
뻤
뻥
뻬
뼈
뼉
뼘
뼛
뽀
뽁
뽄
뽈
뽐
뽑
뽕
뾰
뿅
뿌
뿍
뿐
뿔
뿜
뿡
쁘
쁜
쁠
쁨
쁩
삐
삑
삔
삘
삥
사
삭
삯
산
살
삶
삼
삽
삿
샀
상
샅
새
색
샊
샌
샐
샘
샛
샜
생
샠
샤
샥
샨
샬
샴
샵
샷
샹
섀
서
석
섞
선
섣
설
섬
섭
섯
섰
성
섶
세
섹
섺
센
셀
셈
셉
셋
셌
셍
셐
셔
션
셜
셤
셧
셨
셩
셰
셴
셸
소
속
솎
손
솔
솜
솝
솟
송
솥
솨
쇄
쇅
쇠
쇤
쇳
쇼
숀
숄
숍
숏
숑
수
숙
순
숟
술
숨
숩
숫
숭
숯
숱
숲
숴
쉐
쉑
쉘
쉨
쉬
쉭
쉰
쉴
쉼
쉽
쉿
슈
슉
슌
슐
슘
슙
슛
슝
스
슥
슨
슬
슭
슴
습
슷
승
싀
싄
시
식
신
싣
실
싫
심
십
싯
싱
싶
싸
싹
싼
쌀
쌈
쌉
쌋
쌌
쌍
쌓
쌔
쌕
쌘
쌤
쌩
쌰
썅
써
썩
썪
썬
썰
썸
썹
썻
썼
썽
쎄
쎅
쎈
쎌
쏘
쏙
쏜
쏟
쏠
쏭
쏴
쐈
쐐
쐬
쑈
쑤
쑥
쑨
쑹
쒀
쒜
쒸
쓉
쓰
쓱
쓴
쓸
씀
씁
씌
씨
씩
씬
씰
씸
씹
씻
씽
아
악
안
앉
않
알
앎
앓
암
압
앖
앗
았
앙
앜
앞
애
액
앤
앨
앰
앱
앳
앴
앵
야
약
얀
얄
얇
얌
얍
얏
양
얔
얕
얗
얘
얜
어
억
언
얹
얻
얼
얽
엄
업
없
엇
었
엉
엊
엌
엎
에
엑
엔
엘
엠
엡
엣
엥
여
역
엮
연
열
엷
염
엽
엾
엿
였
영
옅
옆
옇
예
옌
옐
옘
옙
옛
옜
오
옥
온
올
옭
옮
옳
옴
옵
옷
옹
옻
와
왁
완
왈
왑
왓
왔
왕
왜
왠
왤
외
왼
요
욕
욘
욜
욤
욥
욧
용
욬
우
욱
운
울
움
웁
웃
웅
워
웍
원
월
웜
웟
웠
웡
웨
웩
웬
웰
웹
위
윅
윈
윌
윔
윗
윙
유
육
윤
율
윰
윳
융
윷
으
윽
윾
은
을
읊
음
읍
읎
읏
응
의
이
익
인
읺
일
읽
잃
임
입
잇
있
잉
잊
잌
잎
잏
자
작
잔
잖
잘
잠
잡
잣
잤
장
잦
재
잭
잰
잴
잼
잽
잿
쟁
쟈
쟌
쟎
쟝
쟤
저
적
전
절
젊
젋
점
접
젓
젔
정
젖
제
젝
젠
젤
젬
젭
젯
져
젼
졋
졌
졍
졔
조
족
존
졷
졸
좀
좁
좃
종
좆
좇
좉
좋
좌
좔
좨
죄
죈
죗
죠
죤
죳
죵
주
죽
준
줄
줌
줍
줏
중
줘
줜
줫
줬
줴
쥐
쥑
쥔
쥘
쥬
쥭
쥰
쥴
즁
즈
즉
즌
즐
즘
즙
증
즤
지
직
진
질
짊
짐
집
짓
징
짖
짘
짙
짚
짜
짝
짠
짢
짤
짧
짬
짭
짰
짱
째
짹
쨉
쨋
쨌
쨍
쨔
쨩
쩌
쩍
쩐
쩔
쩜
쩝
쩡
쩨
쪄
쪘
쪼
쪽
쫀
쫄
쫌
쫏
쫑
쫒
쫓
쫘
쫙
쬐
쬬
쭈
쭉
쭐
쭘
쭙
쭝
쭤
쭵
쮸
쯔
쯤
쯧
쯪
찌
찍
찐
찔
찜
찝
찟
찡
찢
찧
차
착
찬
찮
찰
참
찹
찻
찼
창
찾
찿
채
책
챈
챌
챔
챕
챗
챘
챙
챠
챤
챦
처
척
천
철
첨
첩
첫
첬
청
체
첵
첸
첼
쳇
쳐
쳔
쳣
쳤
쳬
초
촉
촌
촐
촘
촛
총
촞
촟
촤
촨
촬
최
쵝
쵸
추
축
춘
출
춤
춥
춧
충
춰
췄
췌
취
췬
츄
츠
측
츤
츨
츰
층
치
칙
친
칠
칡
침
칩
칫
칭
카
칵
칸
칼
캄
캅
캇
캉
캐
캑
캔
캘
캠
캡
캣
캥
캬
캭
커
컥
컨
컫
컬
컴
컵
컷
컸
컹
케
켁
켄
켈
켐
켓
켔
켕
켜
켠
켤
켯
켰
코
콕
콘
콜
콤
콥
콧
콩
콰
콱
콴
콸
쾅
쾌
쾨
쾰
쿄
쿠
쿡
쿤
쿨
쿰
쿱
쿵
쿼
퀀
퀄
퀘
퀴
퀵
퀸
퀼
큐
큘
크
큭
큰
클
큼
큽
큿
킁
킈
키
킥
킨
킬
킴
킵
킷
킹
타
탁
탄
탈
탉
탐
탑
탓
탔
탕
태
택
탠
탤
탬
탭
탯
탰
탱
터
턱
턴
털
텀
텁
텃
텄
텅
테
텍
텐
텔
템
텝
텟
텡
텨
텼
톈
토
톡
톤
톨
톰
톱
톳
통
퇘
퇫
퇴
툇
투
툭
툰
툴
툼
툽
퉁
퉈
퉜
퉤
퉷
튀
튄
튈
튕
튜
튠
튤
튬
튭
트
특
튼
튿
틀
틈
틋
틔
티
틱
틴
틸
팀
팁
팅
파
팍
팎
판
팔
팜
팝
팟
팠
팡
팥
패
팩
팬
팰
팸
팹
팻
팼
팽
퍼
퍽
펀
펄
펌
펍
펐
펑
페
펙
펜
펠
펨
펩
펫
펭
펴
편
펼
폄
폈
평
폐
포
폭
폰
폴
폼
폿
퐁
퐈
표
푯
푸
푹
푼
풀
품
풉
풋
풍
퓌
퓨
퓰
퓸
프
픈
플
픔
픕
피
픽
핀
필
핌
핍
핏
핑
하
학
한
할
핥
핧
함
합
핫
항
해
핵
핸
핼
햄
햅
햇
했
행
햏
햐
향
허
헉
헌
헐
험
헙
헛
헝
헤
헥
헨
헬
헴
헵
헷
헹
혀
혁
현
혈
혐
협
혓
혔
형
혜
호
혹
혼
홀
홈
홉
홋
홍
홑
화
확
환
활
홧
황
홰
홱
횃
회
획
횐
횔
횟
횡
효
횽
후
훅
훈
훌
훑
훔
훗
훙
훠
훤
훨
훼
휑
휘
휙
휜
휠
휩
휴
휼
흄
흉
흐
흑
흔
흘
흙
흠
흡
흥
흩
희
흰
히
힉
힌
힐
힘
힙
힛
힝
車
金
羅
樂
洛
落
亂
冷
盧
老
魯
祿
論
雷
樂
便
復
不
兩
梁
良
呂
女
歷
年
連
列
靈
禮
遼
龍
劉
柳
流
六
陸
利
李
理
林
臨
立
茶
行
️
！
％
＆
（
）
＊
＋
，
－
：
；
＜
＝
＞
？
＿
ｍ
｜
～
｡
｢
｣
･
🇨
🇯
🇰
🇳
🇵
🇷
🇸
🇺
🌶
🌸
🌹
🎉
🎗
🎶
🏻
🏿
🐀
🐒
🐕
🐖
🐦
🐶
🐷
👉
👊
👍
👎
👏
👥
👹
👽
💕
💖
💗
💙
💚
💛
💜
💢
💥
💩
🔊
🔞
🔥
🔪
🔴
🔵
🕯
🖕
😀
😁
😂
😃
😄
😅
😆
😈
😊
😍
😎
😘
😜
😝
😠
😡
😤
😭
😱
🙏
🚨
🤔
🤗
🤣
🤩
🤪
🤬
🤮
🥰
##곗
##거
##리
##지
##만
##현
##금
##래
##소
##하
##컴
##이
##고
##노
##릇
##그
##시
##0
##K
##에
##서
##는
##정
##십
##니
##다
##국
##사
##야
##장
##으
##려
##나
##요
##보
##년
##퇴
##할
##자
##가
##있
##체
##종
##합
##감
##벤
##처
##캐
##피
##털
##로
##걱
##아
##님
##코
##진
##닥
##터
##도
##3
##7
##9
##표
##차
##직
##접
##통
##령
##랑
##갈
##말
##영
##대
##됐
##던
##듯
##느
##낀
##핑
##록
##본
##론
##강
##좌
##른
##뭉
##실
##화
##산
##구
##것
##인
##즐
##첩
##질
##라
##의
##성
##어
##버
##딩
##방
##준
##세
##히
##밝
##뻤
##더
##면
##끼
##치
##우
##게
##들
##링
##브
##룩
##제
##파
##트
##을
##길
##러
##데
##션
##상
##권
##학
##습
##총
##여
##수
##역
##부
##춤
##형
##비
##료
##꼴
##낫
##레
##될
##때
##먹
##힌
##랄
##4
##생
##된
##간
##은
##신
##조
##언
##렸
##단
##럴
##개
##촌
##문
##위
##→
##돼
##닫
##든
##주
##꿈
##꾸
##셧
##한
##해
##결
##동
##과
##쇼
##모
##일
##줄
##건
##드
##남
##천
##앰
##용
##앱
##마
##와
##랍
##회
##내
##p
##a
##t
##i
##j
##매
##손
##ㅋ
##돌
##놓
##겠
##타
##났
##음
##친
##두
##풍
##배
##설
##립
##런
##목
##b
##d
##붕
##알
##당
##네
##전
##효
##중
##독
##재
##계
##걸
##ㅣ
##함
##섹
##입
##력
##란
##난
##원
##채
##발
##행
##6
##2
##h
##기
##취
##필
##점
##s
##e
##r
##덜
##심
##n
##g
##토
##박
##법
##판
##뢰
##못
##겨
##올
##탔
##담
##c
##l
##o
##군
##5
##잡
##릴
##져
##E
##R
##B
##A
##L
##Y
##업
##몰
##되
##땅
##락
##릿
##새
##워
##y
##z
##민
##경
##꺼
##같
##태
##답
##익
##쟁
##였
##ㅡ
##벌
##넘
##쉽
##싸
##않
##았
##뤼
##셀
##초
##싶
##냐
##카
##톨
##릭
##교
##날
##왓
##띠
##죈
##봉
##급
##탄
##떨
##었
##킴
##유
##임
##써
##글
##먼
##안
##갱
##억
##미
##힐
##곳
##1
##머
##청
##윤
##외
##식
##쥐
##충
##혀
##갔
##테
##젠
##공
##관
##양
##N
##I
##C
##O
##8
##폭
##잉
##럭
##렁
##없
##겹
##혜
##루
##속
##명
##샘
##플
##놨
##잘
##바
##v
##불
##댔
##혼
##윙
##폴
##염
##꿇
##극
##응
##쪽
##️
##😊
##헌
##찌
##까
##숭
##맹
##커
##린
##뉴
##딜
##펀
##균
##떡
##쇠
##달
##승
##축
##완
##낙
##무
##엔
##─
##씨
##＝
##│
##쑤
##쁠
##겟
##능
##랜
##스
##깝
##막
##각
##끄
##럽
##오
##옹
##키
##뜨
##울
##덕
##찐
##따
##♥
##등
##착
##엘
##듬
##꼼
##u
##좋
##왔
##족
##특
##P
##련
##살
##귀
##줬
##예
##찰
##선
##후
##뽑
##똑
##호
##엠
##즈
##닛
##악
##값
##절
##반
##애
##앉
##짱
##랩
##뜩
##츠
##칩
##팩
##출
##티
##ㆍ
##ㅆ
##ㅔ
##ㄲ
##ㅕ
##작
##봐
##랏
##잖
##집
##∼
##앙
##턴
##광
##짬
##뽕
##됩
##템
##협
##풀
##줘
##💛
##💜
##낄
##큼
##색
##활
##엄
##포
##편
##놈
##m
##물
##증
##디
##얼
##굴
##젤
##육
##험
##폐
##근
##웃
##베
##맛
##망
##분
##켜
##셔
##렀
##추
##온
##즌
##숴
##k
##를
##술
##죽
##환
##약
##샠
##앗
##넸
##ㅠ
##T
##롤
##월
##투
##열
##팍
##페
##짜
##품
##르
##침
##둔
##렇
##쩌
##딱
##홍
##셋
##퀴
##찾
##숙
##저
##뻗
##규
##끌
##깐
##프
##껴
##ㅎ
##ㄱ
##벼
##검
##적
##름
##읍
##희
##왕
##ㅂ
##볼
##람
##녕
##맟
##례
##액
##톤
##㎡
##딘
##쁘
##◯
##녀
##잇
##F
##U
##깍
##킨
##므
##깨
##궁
##꼽
##댓
##죠
##윈
##렌
##긴
##며
##봣
##퍼
##또
##뭐
##눈
##④
##찍
##흐
##쳐
##뱉
##뿌
##냉
##푸
##칸
##읽
##쓰
##류
##섭
##연
##G
##햐
##돈
##좀
##왁
##낸
##앞
##㎞
##튼
##석
##운
##썅
##퀘
##²
##팔
##옷
##격
##옴
##셨
##👍
##뜻
##깡
##패
##빠
##봄
##엇
##맬
##메
##꼈
##핵
##크
##듣
##받
##탈
##범
##득
##짓
##닦
##텐
##졌
##맨
##틱
##량
##닌
##M
##했
##궂
##압
##밥
##솥
##별
##럼
##께
##댕
##앤
##팽
##냥
##댄
##줌
##띤
##い
##て
##う
##휴
##땐
##책
##향
##넝
##병
##틀
##률
##끔
##촉
##괜
##S
##챙
##줍
##항
##튠
##척
##쏠
##쾌
##쪼
##쇄
##흠
##림
##허
##납
##킬
##✽
##싱
##째
##죄
##센
##번
##괸
##뺑
##줫
##빡
##쎄
##낼
##존
##덩
##햇
##밖
##짭
##짤
##뒤
##쩝
##á
##눔
##창
##송
##왜
##곡
##둘
##닝
##랙
##냄
##높
##빨
##최
##참
##변
##삼
##꼬
##픈
##뺄
##돋
##욕
##순
##큐
##J
##혈
##헨
##탐
##껍
##잔
##콜
##겐
##넣
##늘
##칙
##긋
##움
##띄
##밀
##징
##쩔
##율
##뚜
##념
##뽁
##q
##룹
##측
##흉
##괴
##웠
##견
##겄
##렙
##콘
##굳
##삐
##뚤
##젔
##졸
##객
##복
##농
##너
##휘
##김
##칠
##짖
##택
##짐
##삭
##쯤
##뵈
##녔
##북
##쥔
##갇
##똘
##칭
##찬
##헤
##웅
##졋
##덤
##ㅅ
##평
##획
##즉
##뀌
##껏
##몽
##많
##솔
##쑈
##얻
##훈
##튜
##×
##㎝
##랰
##넨
##f
##😁
##뽀
##블
##밭
##w
##윅
##픽
##꿔
##끗
##🐦
##し
##ら
##つ
##뎅
##놔
##융
##황
##략
##팝
##케
##ㅜ
##뿜
##넉
##떻
##😤
##🐶
##○
##헬
##깬
##철
##톱
##낳
##핀
##벨
##휜
##갑
##쌩
##혔
##팀
##섯
##믄
##횡
##륜
##쏘
##둥
##흥
##W
##겼
##겁
##슈
##맥
##쥬
##논
##클
##쨌
##랐
##룡
##켰
##ī
##ē
##뻥
##맙
##놀
##툰
##뱃
##잎
##봤
##딸
##ㅇ
##넥
##붙
##뤄
##괄
##텍
##백
##れ
##ば
##こ
##と
##っ
##た
##암
##찔
##뿐
##슬
##뜯
##퓨
##켓
##빈
##잠
##뷔
##누
##텨
##벽
##댁
##돔
##씁
##쓸
##킹
##뎃
##탁
##튀
##렛
##D
##짠
##핫
##쌍
##둬
##뇽
##혹
##촬
##듀
##맘
##팡
##랴
##닉
##짝
##갓
##낌
##뚫
##뎠
##딪
##뭔
##됬
##맡
##쳤
##옛
##잏
##ㄷ
##콩
##빼
##빌
##깔
##쁨
##늦
##떠
##츄
##혁
##랫
##확
##끝
##낰
##탯
##믿
##껄
##힘
##ㅉ
##몇
##펑
##쫑
##딨
##널
##x
##썼
##흡
##헐
##씬
##렬
##꺽
##첨
##▲
##ㅏ
##낮
##븐
##낚
##ㅐ
##깜
##숨
##랬
##핸
##밍
##묵
##곱
##델
##젼
##썩
##놉
##둑
##덟
##홉
##쁩
##싫
##흘
##✔
##ㄴ
##층
##쫌
##슨
##ㅈ
##롭
##밸
##쁜
##떤
##펴
##H
##롯
##갖
##곽
##벗
##뛰
##💚
##샤
##멍
##냔
##샹
##❤
##밌
##딴
##ㄹ
##겉
##쿼
##츨
##닐
##쉬
##싼
##골
##탱
##궐
##칼
##좆
##횟
##꾼
##램
##샷
##맞
##띨
##첫
##👊
##섞
##쉐
##샛
##긔
##춘
##욱
##됨
##옥
##텅
##Q
##끠
##옮
##툴
##뭇
##롬
##쫓
##벅
##끓
##싣
##룬
##꿀
##멘
##묻
##엉
##젝
##좃
##덮
##빚
##옵
##슷
##잤
##냈
##V
##싹
##쾅
##팅
##똥
##ㅁ
##팬
##곤
##쓴
##텔
##탠
##궈
##귄
##톡
##렵
##엑
##る
##か
##ひ
##씩
##━
##륙
##샥
##롱
##쿠
##꼰
##X
##빙
##얘
##ㅊ
##깟
##핍
##뱀
##릅
##🐕
##홈
##렴
##쟈
##ə
##룻
##é
##㏊
##핌
##あ
##で
##😡
##꽈
##댜
##닭
##닮
##눼
##🎗
##💩
##쌔
##탓
##띵
##슥
##앵
##ⅲ
##딧
##룰
##댑
##푼
##넬
##뇨
##슐
##랭
##😄
##👏
##✨
##🌸
##⭐
##🌹
##🔥
##🎉
##떼
##냇
##뇌
##갸
##덫
##탕
##훨
##샵
##숀
##슴
##돠
##즘
##틸
##걍
##쌌
##쩐
##쉑
##쟌
##🤬
##깅
##눠
##긍
##잊
##넌
##큘
##ㅛ
##ㅓ
##굿
##멋
##땃
##ㅌ
##렉
##빵
##폰
##떄
##멸
##탰
##뚱
##잽
##셈
##깃
##팥
##옆
##믜
##🥰
##🤣
##찡
##킥
##넷
##놧
##뻔
##캔
##뵐
##も
##す
##셰
##릉
##섰
##멤
##툼
##엌
##👹
##빛
##쳣
##쑹
##딤
##㎍
##뻑
##쉴
##돤
##쯧
##쯔
##볶
##꼭
##봅
##뚝
##녁
##ä
##컷
##젓
##뭄
##갯
##봇
##멱
##땄
##뜰
##썬
##쑥
##갛
##♂
##뫼
##깼
##묘
##쌓
##땜
##덴
##↑
##쭉
##캠
##륵
##홀
##の
##엽
##웟
##흔
##걷
##컨
##늠
##짘
##믈
##～
##삶
##렷
##ㅗ
##윗
##땡
##끽
##쟎
##넹
##큰
##뷰
##껀
##몫
##섬
##뻘
##쭈
##밴
##뻐
##믹
##컬
##｜
##냅
##빤
##춰
##탑
##욧
##씀
##곯
##🌶
##찜
##콧
##끈
##꽂
##캅
##틴
##캬
##곧
##돕
##●
##듭
##😜
##😝
##뺀
##웬
##앨
##톳
##썹
##펌
##빗
##촐
##찿
##굼
##퉁
##엿
##괘
##펜
##흑
##샐
##뢀
##됫
##팸
##삿
##뒈
##얄
##넓
##궤
##㎿
##👎
##훼
##촛
##㈜
##뮤
##뭘
##−
##뱅
##씌
##삽
##뉘
##🎶
##넼
##좔
##헝
##쥴
##겸
##겅
##뀔
##칫
##룸
##ο
##α
##꿨
##✊
##②
##ó
##녜
##◇
##윽
##폼
##캄
##뇬
##☞
##⑨
##쌉
##슙
##펠
##ː
##♡
##닿
##얀
##깄
##흙
##⑤
##젬
##섀
##む
##멀
##묶
##밎
##솟
##꽤
##훤
##켈
##훌
##먄
##낭
##맷
##밟
##꿍
##왈
##쫄
##텀
##ま
##ふ
##멜
##뿅
##뺏
##▷
##뎌
##촞
##웍
##럿
##さ
##よ
##닙
##°
##빳
##젖
##텃
##씹
##빕
##밤
##옘
##혐
##쿄
##↔
##잣
##웨
##붓
##룽
##뒷
##꽁
##쮸
##졍
##깽
##됌
##몸
##셩
##댐
##첬
##힙
##뒀
##＜
##쌈
##쿡
##밑
##랗
##㎥
##됄
##꿉
##갠
##≫
##∙
##짚
##셜
##쩍
##㎏
##쒀
##걀
##떵
##퉈
##뜸
##퀄
##í
##ü
##굽
##캉
##됀
##뿔
##ö
##😂
##턱
##썻
##뷴
##꽃
##🇰
##🇷
##갚
##멈
##🇵
##🤪
##렐
##앳
##욤
##벙
##Z
##뀐
##돗
##짹
##쿨
##닷
##꼐
##㎖
##팎
##웹
##밧
##옌
##랖
##ç
##륨
##샌
##팜
##숍
##캡
##밋
##댈
##훙
##＞
##혓
##됴
##뒹
##겆
##ず
##は
##が
##な
##몃
##엮
##눌
##욥
##숲
##핏
##찮
##낑
##좁
##갤
##쏜
##얏
##떴
##슘
##멧
##㎜
##눕
##퀸
##깠
##ā
##찟
##벡
##컥
##꾀
##콕
##★
##숩
##탭
##녹
##엥
##ㅍ
##맺
##윌
##💙
##꺄
##쉼
##닼
##ㅑ
##콤
##쭤
##훔
##□
##늬
##쿵
##벵
##썪
##깁
##샀
##덧
##좨
##깥
##뎈
##쫏
##🖕
##ⅱ
##밷
##㎢
##낱
##씽
##넴
##숯
##킈
##몬
##몆
##힛
##춥
##갰
##틈
##횐
##킵
##콰
##🐒
##è
##씻
##풋
##냨
##펨
##뛴
##휠
##쨍
##퓰
##뜬
##겡
##펙
##💥
##뮈
##쵸
##に
##り
##🤗
##ㅢ
##🐷
##㎒
##뤠
##헥
##🔴
##콥
##펐
##켐
##맴
##껌
##쏟
##붇
##붐
##솨
##쥰
##왠
##얇
##붉
##💕
##넛
##쏴
##낏
##꽝
##곁
##펄
##몀
##쩡
##😱
##쌤
##젊
##숏
##륭
##잃
##쥑
##쉰
##🇯
##셍
##뙈
##겧
##퍽
##쨋
##몾
##둡
##빽
##늑
##챘
##엎
##퐁
##쌕
##얹
##ㄸ
##웰
##㎎
##늙
##텁
##듈
##깎
##뽄
##훠
##켤
##❗
##쪄
##팠
##꼿
##③
##땟
##쟤
##쿰
##뼉
##헛
##🇺
##🇸
##😠
##끊
##찢
##잭
##꾹
##🙏
##℃
##샨
##튿
##켔
##①
##굣
##겪
##켯
##얌
##퉤
##❌
##곰
##짊
##긁
##푹
##앜
##늄
##볐
##셉
##쒜
##빅
##쥭
##く
##즤
##쬬
##톈
##딥
##삥
##곶
##컵
##ン
##겝
##롸
##😎
##み
##쉨
##껑
##쐐
##お
##쫘
##ⅰ
##웁
##だ
##け
##짧
##잼
##땠
##벚
##릎
##🏻
##♀
##à
##ん
##쌰
##킷
##낡
##팟
##⑦
##쌀
##쟝
##핼
##죵
##벳
##∨
##찼
##윳
##쩨
##땔
##겊
##＋
##샊
##줏
##빔
##💖
##첵
##먀
##숫
##얗
##뤘
##껭
##쫙
##븅
##겻
##튭
##닳
##겔
##밣
##긱
##쎈
##ⓒ
##꼇
##눴
##☠
##첸
##ㅃ
##깰
##찹
##а
##눅
##및
##쏭
##ｍ
##닠
##뇸
##탤
##썽
##펍
##닢
##켄
##뗀
##뽈
##챈
##깊
##옻
##찻
##쓱
##깉
##▶
##┃
##앴
##칵
##쾨
##녘
##궜
##ō
##㎛
##뼈
##쏙
##짢
##톰
##걔
##삯
##볕
##둠
##팼
##🕯
##밈
##읺
##볍
##쑨
##읏
##ど
##뮬
##픔
##겜
##↓
##듦
##셐
##©
##뮌
##홧
##캥
##곘
##듸
##⅔
##멕
##쇅
##헉
##췄
##뀜
##쫒
##춧
##욘
##뭥
##뗐
##졔
##헙
##컹
##몹
##쿱
##숑
##꽉
##떳
##옇
##쨩
##텝
##🇳
##셴
##곸
##탬
##뵙
##🔊
##둣
##봬
##뻣
##휙
##꿰
##밉
##そ
##샴
##ℓ
##찝
##틔
##틋
##뿡
##엣
##맣
##썰
##췌
##텡
##렝
##핥
##퓌
##텼
##쒸
##◆
##튈
##젯
##캣
##썸
##뺐
##엊
##뎁
##잦
##섺
##욜
##⅓
##굉
##귤
##め
##🐖
##텟
##쐈
##뼛
##랠
##뎀
##듕
##덥
##≪
##튕
##넜
##え
##뭏
##촤
##귈
##갭
##솜
##😃
##씸
##횽
##챌
##옳
##⊙
##랔
##섶
##딲
##맸
##죳
##😍
##쳬
##슛
##や
##폄
##쓉
##햏
##㉣
##햄
##갬
##즙
##❓
##낯
##💗
##쭝
##퀀
##낍
##÷
##쿤
##😘
##폈
##씰
##⑥
##쉘
##き
##믐
##♠
##훅
##욬
##へ
##툭
##™
##덱
##괞
##🤮
##갉
##첼
##슌
##숟
##퉜
##괭
##㉡
##㎾
##쭘
##뭍
##얔
##퐈
##땀
##캘
##콴
##얜
##😀
##を
##Ⅴ
##갗
##챠
##😭
##훗
##☺
##뿍
##좉
##멩
##맵
##뎨
##삘
##±
##챔
##챗
##췬
##꿋
##얍
##쭐
##눙
##볏
##팰
##슝
##싄
##펭
##귝
##ぬ
##흰
##⑩
##촨
##뭣
##컫
##풉
##팻
##잰
##겋
##🐀
##뺌
##좇
##㉠
##맏
##웡
##Ⅲ
##낟
##읎
##뷸
##ー
##㈂
##쥘
##챕
##😆
##냠
##띁
##튤
##앓
##㉢
##쬐
##뛸
##샅
##싯
##뱌
##찧
##샜
##슭
##됏
##퀼
##킁
##👉
##π
##헹
##꺾
##딕
##믓
##웩
##캇
##딛
##멎
##о
##и
##♣
##β
##탉
##늉
##짙
##μ
##얽
##🏿
##힉
##앖
##쩜
##넙
##몄
##헴
##컸
##픕
##펫
##팁
##⎯
##툽
##옅
##켠
##퓸
##뮴
##츰
##윰
##펼
##◎
##꺠
##읊
##옜
##💢
##셸
##퇘
##횃
##튬
##낵
##깻
##섣
##줴
##🔞
##죗
##졷
##쫀
##맑
##넵
##땍
##굶
##🇨
##ち
##튄
##삔
##롄
##😈
##렘
##뻬
##싀
##헷
##꽥
##텄
##힝
##죤
##툇
##⚪
##웜
##◦
##왤
##■
##☆
##놋
##쭙
##빻
##뮨
##잿
##퉷
##쌋
##큿
##냘
##즁
##잌
##홱
##꿎
##쪘
##앎
##△
##쭵
##わ
##쎅
##✌
##눗
##ㅄ
##햅
##▪
##쎌
##😅
##엷
##휼
##쨔
##듐
##숄
##왼
##˙
##◉
##엾
##е
##빴
##늪
##닻
##흄
##챤
##젭
##훑
##끙
##홋
##뮐
##쉿
##돛
##쉭
##홰
##켁
##왑
##쳇
##⛔
##샬
##빰
##줜
##쯪
##잴
##뾰
##👽
##늣
##셤
##➡
##🔪
##펩
##뭡
##윔
##흩
##캑
##🤔
##셌
##핧
##ⓐ
##쇳
##쳔
##휩
##▣
##⭕
##☎
##폿
##챦
##껐
##촘
##뵌
##솝
##뺨
##뉜
##🤩
##쌘
##헵
##옐
##뗏
##뼘
##뺴
##멓
##Ⅱ
##켕
##귐
##덯
##Ⅰ
##퀵
##촟
##큭
##츤
##뙤
##δ
##🚨
##귓
##엡
##뱁
##젋
##뽐
##삑
##짰
##괌
##콸
##꿩
##쵝
##굵
##👥
##㈁
##ⓑ
##◀
##Ⅳ
##쨉
##똬
##칡
##벋
##㎓
##뗄
##숱
##횔
##윾
##팹
##윷
##쐬
##띔
##뀝
##콱
##퇫
##띌
##얕
##뜀
##땋
##솎
##옭
##🔵
##꽹
##큽
##곪
##휑
##⇒
##캭
##옙
##쇤
##㉯
##넋
##슉
##㈏
##㈀
##띈
##묽
##㈑
##떫
##푯
##홑
##⑧
##▼
##쾰
##㈃
##㈐
##㉮
##㈎
으로
에서
하는
했다
하고
##니다
이다
이름
##었다
있다
한다
들이
있는
사람
이라
##지만
##00
아니
##는데
들은
우리
##으로
##면서
생각
##다고
까지
에게
##다는
ㅋㅋ
하지
국민
적인
##습니다
대한
에는
그러
##리고
20
같은
적으로
한국
##았다
##렇게
지금
해야
위해
하게
이런
##으면
하면
들의
들어
##하는
일본
하다
된다
그런
부터
나라
때문
중국
되는
##하고
하기
##니까
이나
지난
자신
하나
해서
##라고
##통령
##세요
없는
이라고
들을
그래
문재
10
19
문제
보다
서울
다른
아이
##하게
대통령
처럼
미국
정부
만들
그리고
이제
##어요
없다
라고
##어서
진짜
201
대해
통해
이야
입니다
있었다
##지고
##겠다
이번
이었다
경우
필요
인간
너무
##네요
따라
들에
다시
이상
시작
하지만
##도록
뉴스
에도
하여
##혔다
마음
아니라
함께
아닌
시간
정치
##였다
합니다
기자
##지는
사실
경제
민주
모르
##라도
그냥
아무
하며
에서는
어떻
밝혔다
모두
자기
됐다
많은
북한
가능
##는다
모든
사회
##려고
정말
##으며
보고
어떻게
되어
있을
가장
어떤
금지
많이
##리아
지역
조국
없이
이어
정신
##나라
그렇게
##는거
##소리
##졌다
관련
위한
##구나
무슨
들에게
상황
관계
이렇게
라는
돌아
그것
당신
있었
지원
##시스
하면서
이라는
세계
얼마
##부터
##ㅋㅋ
기업
##권자
대표
재배
같이
되고
그렇
소리
다음
사용
여기
무단
##한다
30
검찰
저작
진행
사업
좋은
받아
##으니
##거나
있어
그러나
정도
재배포
12
##들이
아직
이고
좋아
##했다
##로나
어디
국가
11
##만원
##전재
해라
무단전재
##000
##렸다
ㅋㅋㅋ
##지도
저작권자
##er
##서는
##민국
여자
코로나
바로
##가는
보이
이날
##어나
##레기
이야기
그럼
이미
##다가
##는지
시키
그래서
##기도
이후
모습
##거리
국회
##시간
자유
시장
##라는
나오
뉴시스
##억원
계속
교육
대한민국
확인
##위원
이유
지지
중요
한테
18
##스트
민주당
15
세상
이용
##주의
조사
기사
##대로
##코리아
살아
였다
인데
사이
현재
사랑
이해
프로
오늘
##가지
설명
않고
보면
한다고
##사람
여러
피해
##아요
들도
##on
역시
되었다
잘못
의원
누구
들과
##아서
##나요
이지
정권
어느
않는
##르면
##기업
만들어
투자
처음
##머니
적이
그녀
1코리아
경찰
했던
가지
남자
조선
새로
수준
않은
해도
하는데
이러
인지
이었
댓글
얼굴
계획
##in
무엇
##하여
이게
대상
##리는
자리
##하면
알고
##비스
국내
특히
찾아
##더니
떨어
경기
하겠
##야지
나타
내용
이것
않았다
하시
이란
있고
연구
인가
결과
가족
되지
##까지
##하지
운영
해주
의미
있다는
하자
얼마나
다양
##스크
수사
100
##정부
결정
세금
또한
예정
그런데
상대
방법
최고
우리나라
기록
200
아니다
어려
이냐
발생
한다는
에서도
기술
않았
되었
받고
저런
##시장
보여
##OO
없었다
결국
따르면
삼성
머리
감사
먼저
인정
되면
##의원
친구
##왔다
기대
##인데
했다고
회사
##학교
언제
보내
##다면
##메일
역사
동안
없어
올해
이메일
지나
사건
아주
##러운
여성
##사업
새로운
개인
시켜
관심
##an
들아
주장
내려
13
##을까
방송
부모
##겠지
선거
쓰레기
한번
언론
조금
##자리
학생
당시
50
가지고
문재앙
직접
과정
공개
책임
전문
25
14
같다
정보
##갱이
있는데
노력
##해서
##보고
##시아
최근
행동
정책
16
##는게
존재
준비
하루
있습니다
##놓고
있다고
오후
제공
근데
##잖아
좌파
##동안
그리
학교
기준
하던
고객
반대
##어야
개발
일반
만큼
관계자
##0년
제대
하려
##보다
##버지
영화
알아
한편
미래
말고
17
##가리
밖에
참여
제발
얘기
알려
만나
자한
사고
상태
##으나
OOO
##en
관리
했고
전국
##진다
발표
물론
서로
문화
성장
##르는
##이지
안전
##운데
부분
##리지
받은
##천지
일부
후보
활동
추진
시민
##났다
했는데
완전
그때
못한
##랜드
##하다
##at
오는
##or
##그램
##위원회
아니고
해결
하냐
하였다
장관
그만
제품
서비스
없고
##어도
성공
또는
##he
##교육
##와대
대학
현실
엄마
해당
보수
하라
생활
아닌가
##이트
대구
##인다
더욱
하니
자체
있도록
어린
정의
그게
##치고
빨갱이
당연
##ar
##부분
인터
판매
걱정
않는다
스스
전체
##조사
선택
거짓
확진
해외
포함
영향
이라도
##하기
이기
바라
경험
##말고
##이고
입장
##es
가는
올라
하세요
청와대
##주고
증가
##시다
스럽
검사
##센터
자한당
기다
하는거
##언론
##린다
요즘
##이다
판단
마스크
절대
사진
##주는
전화
광주
시대
평가
거기
마다
이니
가서
가격
기억
건강
##합니다
ㅎㅎ
환경
여행
가운데
외국
##al
##라이
##갔다
##더라
최대
실제
이거
이며
금융
현대
이면
21
##무원
구성
생산
##근혜
마련
순간
말씀
24
더불
나온
드러
성이
가치
보니
자연
예상
##대표
인사
변화
니들
배우
공감
요구
높은
##러스
보는
확대
행복
표현
유지
도움
교수
똑같
본인
##까요
##레이
받을
40
##므로
능력
빨리
기회
신천지
##시고
만든
이라며
이건
아버지
공산
범죄
국제
##기는
대부분
소비
나가
특별
##기관
공부
있던
친일
##거든
강화
중심
결혼
강조
방문
##르고
들고
먹고
정상
해보
##전자
활용
성을
받는
대비
운동
감정
선생
않을
넘어
산업
상승
도시
과거
부산
방식
##더라도
22
##개월
행사
자식
크게
직원
발전
나는
의사
오전
ㅉㅉ
지속
감염
전쟁
인생
이루
지방
이는
사라
##거지
한국당
##운동
적용
분명
들어가
경쟁
미친
아니면
기본
업무
나서
##이나
더불어
다니
분석
이러한
했지만
하네
##민주
조작
##지지
노동
##다니
##한테
##관리
##럼프
마지
없었
##겠습니다
상품
탄핵
세월
##냈다
대로
23
##파트
혼자
##마트
박근혜
추가
##국민
싶은
거리
##지역
공동
선동
치료
엄청
거래
있게
##드시
트럼프
못하
매우
##통신
있지
##은행
##is
아직도
효과
이사
규모
##it
못하고
있어서
목표
##드는
부정
자동
프로그램
위험
주변
바이
설치
##동산
그래도
##어난
구속
##군요
혹시
바람
현장
기간
##없이
마지막
##지원
움직
우선
##아야
못하는
신청
질문
진정
##있는
##경제
하겠다
확진자
기존
그러면
대화
이익
##이스
##랐다
집중
보호
비교
적극
##ic
주요
지켜
작품
역할
하늘
혐의
가까
어찌
아베
##으면서
권력
했을
개선
어쩌
##ou
게임
새끼
감독
##단체
어머니
전망
27
##오는
의견
있으면
총선
아무리
##히려
사기
26
##가고
##들어
국회의원
고려
28
공무원
##위기
전혀
목소리
저희
처리
발견
대응
##해야
내년
스타
지적
##른다
##돼지
##가요
분야
어렵
##르게
보인다
주민
전부
오히려
##자기
##봐라
두고
반드시
조직
오래
모르는
의료
대신
##겠네
the
회장
행정
집단
선정
안되
202
실시
정확
##쳤다
부동산
김정
공격
제주
가진
##거다
병원
##려는
##심히
##시민
##관계
아들
이네
##기고
비판
임금
##구만
영업
그림
선수
##하네
충분
비롯
##산업
일단
##보면
아마
갖고
음식
성과
남편
이전
확실
여론
구매
대체
##느냐
이랑
부족
##수록
로서
대단
관한
한심
느끼
가져
환자
다만
##5년
지도
매출
중앙
29
이자
##사회
가슴
젊은
##조건
##깨문
##마라
증거
같은데
##디어
있지만
##시설
좌빨
않아
떠나
불법
받았
##장관
##구요
아는
인물
##8년
##란다
주는
평화
위해서
계약
##대체
외교
유럽
수출
없을
받았다
##너지
##새끼
##ed
항상
아침
주식
그동안
경영
1년
맞는
각각
가짜
구조
다양한
##대한
처벌
주인
대깨문
청년
너희
그걸
##해라
##레스
참석
기분
잡아
보도
제일
동시
개최
무능
하는게
일어나
##겠지만
음악
사망
고민
##이는
열심히
##리면
그럴
시기
31
##7년
재앙
영국
도대체
달라
##때문
따른
피해자
느낌
전략
브랜드
신경
고개
##어진
공정
재판
님이
##생활
도와
궁금
사는
있으
불안
##9년
##내고
세월호
##에서
사과
로는
라며
와서
시행
있기
##회의
하려고
마치
다가
지난해
##ion
괜찮
하다고
하였
60
연결
확보
##었던
차이
##ing
행위
##리기
별로
현지
관광
부탁
인터넷
##지요
사장
따라서
잠시
아파트
제작
공급
해요
비슷
##전히
거짓말
##어라
노래
##투자
신고
##시면
쉽게
##호사
가정
했다는
위치
##6년
이라면
보기
고통
##정책
##려면
열린
적폐
##연구
돼지
##라마
우려
##om
누군
응원
##겠다는
협력
진실
승리
이래
##리스
##회사
하락
일자리
아래
상당
##간다
지키
##정권
원래
##는가
만약
##된다
나이
제도
그대로
들만
위원
##정도
이터
모양
공공
종교
연락
으로는
나쁜
아니냐
##인지
부담
으로서
##기술
아름
공간
스마트
작업
갑자기
불가
법무
시스
희망
쓰고
##개혁
연기
해야지
대답
영상
있어요
아내
에선
목적
##겼다
토착
지급
통합
한다면
자세
생명
인해
##nd
조치
있으며
예산
##웠다
##기로
##el
##가서
과학
정당
##개발
주제
기관
##우고
에요
2년
독립
##었는데
기능
##던데
독재
입국
개혁
그거
##업체
중요한
주고
##에게
##스타
당장
의혹
무조건
않다
##4년
##보는
##두고
##치는
##인트
인도
싶다
전세
니가
마찬
##겠다고
##지면
##업자
제시
4월
출시
##2년
어려운
쓰는
밝혀
인식
다르
자주
눈물
##습니까
##겠어요
됩니다
니들이
이지만
##선거
많다
황교
핵심
하셨
안보
전달
조용
노인
시스템
##뉴스
수익
안타
표정
인천
불러
나중
같아요
일정
소비자
##주세요
국정
앞서
##et
개돼지
에너지
있음
에게는
##소년
##봐야
그랬
분위기
들었다
방향
199
투표
의심
되기
파악
이젠
없다는
##지않
##공사
##정보
소속
안정
감소
마찬가지
듣고
##려서
무시
대해서
3년
위기
군대
끌어
있는지
단순
of
3월
만에
달러
##시대
##활동
규정
차지
##게요
인상
##라인
훨씬
미세
빠져
오른
못했
출신
##문화
이뤄
##바이
프랑
##그룹
은행
전기
네이
알았
##없는
달리
##먹고
인기
자동차
독일
##분기
하거나
한마
##건데
시절
##주시
공식
물어
##3년
sk
보였다
혁신
##대통령
이하
##ct
##어버
최저
##as
상관
종합
그건
6월
lg
광고
하는지
최초
논의
건설
평균
가르
요청
##1년
하다는
##려라
##기간
사례
##학생
여부
##난다
여전히
코스
##해도
##하나
나무
a씨
가만
5월
##bs
솔직
강력
없다고
안녕
못했다
##병원
에만
##보자
있나
##거든요
사무
있으니
반응
최소
회원
타고
중소
##주택
이든
70
도입
살인
했습니다
출연
반면
부끄
합의
선보
지식
죽음
평생
아프
살고
##워서
제외
거지
개념
예술
여러분
사태
느껴
##시오
##시지
주택
롯데
##통신사
맞아
##지게
재산
카드
러시아
니다
보통
단체
개정
유명
##본부
매일
그저
##겠냐
아닐
##le
##인가
덧붙
끝나
형태
면서
야당
대책
하라고
무서
한데
1위
심각
건물
##re
직장
들로
비용
있다면
달창
##사고
내부
담당
자격
구축
당연히
##있다
의해
싫어
보험
논리
놓고
고용
##ㅋㅋㅋ
동물
적이고
예요
제기
가입
재미
시킨
소개
프랑스
1일
시즌
##거래
##문제
임명
글로
사전
바뀌
자료
실패
바꾸
시청
하도록
의지
인권
약속
그러니
공감언론
뉴시스통신사
저작권자ⓒ
할머니
남성
나아
##려야
확산
물건
군사
스트
사상
보유
촛불
##섰다
##환경
업체
대출
이곳
신뢰
등장
##왜구
포기
7월
지구
##으니까
에이
3일
방안
이끌
##달러
수도
달려
민족
좋다
시키고
제한
12월
그렇지
단계
철저
9월
원인
기반
향해
교회
##의회
한거
시험
##다운
웃음
##었고
##행위
##잖아요
있어야
남아
##경원
않으면
규제
점점
##우스
이동
##수사
대변
##으로써
지난달
아님
네이버
진보
완전히
공수
구체
시설
나오는
##와서
가득
상상
##하자
##기사
있었던
##등학교
##이상
드라마
으로부터
##만명
언급
10년
저렇게
##에도
차량
알바
하기로
회의
수입
##세기
##리며
생기
##입니다
마라
##건지
한마디
대해서는
강남
##하는데
혹은
##공감
대전
글로벌
1월
10월
디자
상담
##하면서
저녁
못할
살펴
전라도
유치
2차
돌아가
통일
일상
으로도
소득
교통
라도
라면
장기
스럽게
보다는
##보니
마이
예전
난리
도로
8월
두려
최종
나누
나경원
정리
같아
##준다
의식
서민
in
전자
바란다
##세대
위반
##도시
공연
장애
어이
##ol
기부
앉아
힘든
하기도
따로
하려는
왔다
##라면
자꾸
##먼지
벌써
안내
##지말고
그러면서
##기에
##국가
##조선
다행
나도
방역
자랑
##검사
신규
지정
라이
바다
진심
하는것
##가락
전환
모델
##정치
모르고
검토
마을
덧붙였다
##아니
수행
##들은
##한거
##보험
제출
취소
제안
수요
전통
ㅠㅠ
반영
부인
특정
##00원
##페이지
##렀다
좋아하는
없애
시켰
기획
수상
각종
자본
대선
대가리
시도
등록
있냐
인구
##텐츠
##계획
나올
##금지
내일
벌어
그대
가고
근무
전남
나타나
아닙
문죄
35
##림픽
##지기
분노
2월
전날
양심
##시키
##셔서
작가
##st
80
자녀
일어
##지사
지랄
##정신
불구
현상
##il
본다
시선
##반기
비난
뛰어
##바로
다들
들이다
예방
토착왜구
발언
기레기
##라리
근거
선물
tv
놀라
1000
조건
##회장
원내
목숨
만드는
불편
##이션
##만큼
나왔
주문
없습니다
비리
늘어
아빠
##ot
들한테
인이
만으로
소설
##사자
총리
바보
혜택
강제
하다가
전년
작은
흔들
##생각
##가족
했으며
##일보
생긴
회복
1만
이루어
윤석
사법
니네
나머
많아
추천
불쌍
공유
우수
##차피
##총장
하신
이때
충분히
##조차
조성
참가
##는것
##소득
##카드
##bc
변호사
의무
수업
눈치
소식
대중
##민주당
##00만원
##학자
법무부
과연
민간
##져야
성격
00
##가격
##가지고
장난
##하며
어린이
어차피
된다는
와의
몰아
##누리
변경
화장
잡고
권리
미리
들었
위해서는
##경기
도착
돌려
무대
강원
만족
특징
나왔다
11월
전북
나머지
가요
2000
부르
##am
몰라
원칙
조심
주목
어쩔
5일
로운
직업
공장
서울시
##듯이
함을
있을까
판사
문재인
판결
##끼리
훈련
황교안
언어
헌법
고생
논란
만들고
반성
높아
본격
일제
근로
연속
봐라
시키는
거부
물러
소유
있네
##무리
##ent
들여
이리
10일
아무것
국방
심리
부부
##규모
가면
##보았다
지하
전문가
##해요
울산
소재
일베
##위원장
##겠네요
어제
15일
되면서
활성
학습
된다고
2일
신문
믿고
올려
동일
더러운
남북
##거운
그러니까
할까
ㅡㅡ
##만한
법원
바이러스
최선
##id
무식
제조
확정
비해
받지
결제
##스터
##아이
##든지
갔다
지지율
##디오
나타났다
평소
역대
여름
먹는
체험
##0년대
할인
미세먼지
##이어
알게
에서의
영어
##복지
##프로
##인간
무기
오랜
속도
##방송
월급
상처
좋겠다
없는데
통과
##공감언론
여당
198
둘러
태도
기초
걸어
##더라고
##져서
노조
만이
◎공감언론
##남불
단어
가야
하니까
##대회
사퇴
홈페이지
싶어
##금융
단지
유리
##라지
5년
차라리
무리
반복
자금
##안전
긍정
임대
프리
사항
##벤트
교사
보여주
##대상
가로
##치지
죽은
20일
미사
##머리
##공자
대형
보자
##ch
해석
우한
솔직히
없어서
##아라
##랍니다
팩트
내고
기념
##포츠
30일
멍청
##아먹
자살
높이
힘들
취업
택시
선발
그룹
복지
7일
커피
##나무
위안
보상
##느라
##경찰
##할수
소통
##페인
줄어
모자
도전
아니었다
한국인
이벤트
홍보
총장
권을
거쳐
되는데
무너
통한
##들아
촬영
위원장
##의식
아시아
4일
##트남
아냐
and
그나
희생
##제품
장소
매장
대기업
매국
##하시
##이팅
##발전
공수처
나온다
미안
##요일
사형
구분
완성
똑같은
절차
14일
##로남불
##자체
님은
모여
다녀
20대
51
통화
약간
##수준
제1
전해
바꿔
보장
개소리
##대가리
당선
조정
향후
했으면
##지어
중소기업
의도
형성
##놓은
하이
깊은
겨울
금액
##드리
아예
출발
지배
보건
집안
##서비스
##자고
##대학
저지
접수
모른다
실수
작성
가라
협상
그곳
바닥
집회
중단
초기
##사건
##여행
할수
##히는
##내는
##니스
유일
##리카
##케팅
먹을
고마
설립
##주의자
노무
가만히
36
반일
없음
물었다
##조작
##러워
갈등
32
김정은
경남
동네
정치인
깨끗
##럽게
피부
덕분
##았던
8일
영원
어려움
##젝트
세력
싸움
베트남
##미터
방침
5000
외부
##법원
전시
디지
##나게
이르
이죠
28일
##기만
떠올
시킬
불가능
콘텐츠
25일
이명
되어야
##리게
##수수
차례
다리
##지수
유통
없으면
참고
##돌아
인한
건축
바탕
유튜
삼성전자
45
되며
33
경북
유시민
##직원
이탈
보이지
제목
쏟아
to
차원
강한
버스
##거야
통제
체결
90
운전
6일
27일
온갖
인터뷰
인은
##ce
상식
할지
대회
비슷한
접근
##운드
우주
답답
심판
벗어나
1차
하러
진출
매력
##문회
9일
##ur
16일
인증
11일
봐도
26일
흘러
23일
니까
##ig
받으
무섭
기소
12일
문자
같았다
##협회
##바일
지시
##해주
차별
정신차
포인트
님께
시위
17일
500
청구
18일
22일
가짜뉴스
##는거지
##롭게
이성
##범죄
바른
고소
##바리
21일
중간
마무리
##단계
원내대표
가까운
##세력
세종
##순실
백신
죽을
충북
24일
##센트
아닙니다
동의
1명
만드
조용히
부자
연예
불리
아니라고
공사
보이는
##나오
냄새
불매
뻔뻔
금리
맞춰
태양
##연합
##se
불과
##줘야
서울대
##여명
집행
타이
19일
13일
수십
로부터
##스러운
##립니다
어른
검찰개혁
간첩
내게
누가
저기
300
미소
2015년
##겠어
무역
인근
##랫폼
결코
위협
주도
이내
투입
기울
이걸
동생
무료
프로젝트
비밀
하지말고
30분
적절
그렇다면
##드릴
창업
이중
##리그
##서관
결론
이명박
토론
청소년
달성
##대책
##20
29일
##ut
심사
자산
비상
##기지
주로
2017년
옛날
주위
모바일
디지털
한반
형사
th
내로남불
열고
공모
뿐만
##처럼
##프트
친일파
어떠
이로
2016년
시점
문빠
스스로
##연금
##리자
잘못된
입고
##건가
풀어
세대
알려졌다
점검
도망
틀딱
극복
실험
아닌데
새누리
못해
노동자
##라스
교재
##번호
##히고
실천
않게
계기
노무현
완벽
태극
주말
하더라도
최악
진단
하겠다는
현지시간
부여
통신
요소
##면서도
도덕
함으로써
휴대
호텔
인수
간단
##정희
정체
더불어민주당
비행
상대방
kt
##od
스마트폰
최순실
##화문
스트레스
현금
없지
이럴
연장
##리라
긴장
애국
보지
마케팅
##바닥
체계
아동
적당
선고
명령
##ns
##우는
엄청난
감옥
국토
받아들
##이드
가끔
철학
지내
따뜻
특성
님의
##없다
재난
##iv
훌륭
아름다운
##im
##아치
##하거나
식사
##퓨터
과는
하시는
##져라
##하세요
이미지
##청장
오르
못한다
죄송
##보네
박사
없네
##제도
이론
시각
업계
기생
영역
2명
2018년
재정
부문
윤석열
##이네
##학년
집값
빼고
펼쳐
##50
있나요
너무나
##노총
멤버
##달라고
##ad
계산
정은
않을까
의한
##주일
수치
합리
이요
부대
34
##토리
38
아울
주사
특수
카페
억울
지들
위로
외국인
가게
심지어
멀리
국민의
##평가
짱깨
기여
수용
일까
명예
반도
##집단
##사항
뿌리
##시기
충격
그날
낮은
이재
##한것
예비
마침
칭찬
##단다
공기
신종
소방
##많은
한계
비롯해
맨날
감성
##보다는
졸업
장사
고양
하려면
##ation
홍콩
못하게
아무런
가리
어울
전반
##온다
채용
동원
주의
##교통
인재
들려
수원
하긴
토지
거주
미치
똑같이
새벽
뉴욕
##공개
이놈
범죄자
만한
##더라고요
투기
종북
##추고
열어
들어오
리더
긴급
신용
광화문
스타일
가수
##과학
장면
조선족
나눠
실력
꾸준
플랫폼
했으나
사내
##상황
아까
화재
확실히
2014년
안타깝
오지
##구조
만을
제2
##부모
아니야
전투
유튜브
바랍니다
좋을
용기
로나
##자금
박정희
1인
항공
매년
뽑아
음성
주가
##em
구입
다수
##op
들어서
알아서
##대는
##진국
동료
손해
##한데
하고자
고발
통계
애초
증명
##ia
몰랐
내리
소송
##총리
편의
##었다고
그려
컴퓨터
허용
아울러
경기도
그러고
징역
##능력
여인
##ow
배달
블랙
과제
##로부터
나갈
##었을
날아
정신병
롭게
고맙
##본다
성인
사유
모아
##바이러스
였던
##다른
동기
##로운
나선
##ㅡㅡ
##과정
마주
##주기
검색
화이팅
접촉
받아야
소중
가까이
연출
대처
뒤집
겨우
1억
폐지
##건설
##에요
중국인
후보자
어깨
애플
서서
이만
프레
##한다고
숫자
자영
앞두고
##겠죠
성적
폭력
편지
##으려고
대하여
##가면
투자자
했어요
인공
##보기
마리
민주주의
##웨이
##독교
##직자
성은
선언
굳이
그렇다고
시원
##항공
197
쓰지
라인
받는다
빠르게
스포츠
치고
##지면서
##냐고
그나마
사정
31일
비롯한
빠른
자극
저러
##대학교
##리어
##대비
전세계
자원
올리
##이기
게다가
분양
it
해소
##그러
##성장
적이다
##관광
##할때
보낸
스러운
설정
##셔야
날씨
이었던
께서
인력
밀어
공포
##단지
있었고
살기
##나는
##거라
##un
##래도
효율
실현
전했다
쳐다
##시스템
##주면
저것
생겼
문학
##아리
알지
이오
##부대
##이익
경계
##아버지
태극기
##워크
작용
찬성
메시지
흐름
특검
기계
##메라
##의자
##마다
종류
오직
인민
##공원
형식
##니아
있었는데
비례
공시
측면
백성
떨어진
##가야
대기
까지는
근본
상호
협의
비율
국무
##구리
어디서
독자
##었지만
했는지
각자
수술
없어요
나와
완료
이른
녀석
대변인
##상품
##어리
##금리
경쟁력
000
국립
주세요
없으니
52
차단
마감
그래야
2019년
어리
##보며
분명히
아기
봐야
##노동
하겠다고
하는건
해주세요
깊이
창출
근처
해야한다
37
성폭
추구
물고
##기준
##시길
수단
##있네
##판사
배치
기도
요리
했어
위하여
##행사
자아
##버리
여기서
언니
봉사
군인
생겨
##산물
한참
##달라
##리오
##카오
##릭터
치매
##하는거
본질
짜증
복잡
그린
고위
넘는
유니
##조원
청문회
부서
힘내
실행
여야
##해진
올림픽
주둥
매국노
예측
##아지
늘어나
배경
고향
용서
주인공
담배
##전문
여유
헛소리
##ap
##시는
걸쳐
##슬람
취급
##같은
##이자
확장
##봤다
##겠나
전라
물리
##세계
##ir
존경
작년
쇼핑
41
지지자
설계
관점
##숭이
즐거
신체
내놓
주차
역량
절반
모른
한가
청원
적자
다섯
##처분
느꼈
되게
메이
##중앙
당부
##리즈
죽어
이니까
찾는
##ay
3명
인류
##럽다
30대
타인
##주지
##는거야
위안부
##먹는
##가며
##ter
강의
kb
##가구
캐릭터
스럽다
가해
2020년
비중
죽여
임시
운명
반도체
이기도
향상
오픈
##os
##철수
믿을
유사
철저히
서류
질병
모집
문통
당당
깨달
아니지
##000원
상징
격리
##마자
하겠습니다
식당
이웃
한지
##자치
주지
##회담
혼란
며칠
기다려
수석
통해서
신속
맞아요
##리스트
에스
목사
한게
자존
제거
##치게
악마
으키
자빠
##us
안나
위선
분리
키워
권한
만난
##더만
##보호
신분
##ul
##자산
쓰러
법률
3개
보이고
디자인
펀드
##버스
않도록
보며
##지방
##이면
황제
아이디어
손가락
##전쟁
##십시오
실망
##다시
증상
가구
시켜야
10시
그리스
얻어
##증권
경상
##십니까
##이터
답변
196
하지마라
그러자
부상
채널
이달
처분
39
상장
배송
##겠는가
##ec
잠깐
남녀
챙겨
##상공
라니
지도자
꺼내
무서운
##터리
##들고
##여자
범위
##었습니다
농업
좋지
케이
미군
##았고
55
##회견
불만
##라우
비록
##가치
맞지
쉽지
올랐다
하더니
가난
지수
그러한
데려
내린
##친다
방사
이탈리아
##년간
허위
식품
노예
##부장
믿음
##하지만
6개월
기타
떠오
하고는
##던지
48
##가능
##방식
이혼
축제
2013년
다소
임기
나섰다
##경영
우파
실질
##로지
별도
받아들이
논문
법안
발행
편안
다를
털어
##잡고
##았는데
쪽바리
같습니다
조합
보고서
촉구
연습
##이야
데리고
##음을
있는가
어렵다
네요
부장
언젠
명확
##싶다
주기
왜냐
소년
적어도
않습니다
##당국
만들었다
##처리
개판
##나고
님들
sns
전두
허리
##이며
##10
경고
##스코
소녀
축구
이외
##식품
과도
수정
##봐도
에다
오빠
기독교
영혼
연계
일찍
아나
에게도
##어져
의문
준다
수수
전주
##긴다
의장
명단
잘하는
##ㅎㅎ
실적
피고
보았다
##사실
##여서
이슈
더이상
후회
방해
##치기
한화
고기
신기
##펀드
추정
로써
##보지
환불
문의
허가
여론조사
표시
##기기
##ew
42
없지만
머물
받게
협박
하실
지분
보면서
학원
와는
먼지
##협력
세워
적은
벌금
간다
카메라
창조
아쉬
사이트
페미
##으려
##체육
##했던
느낄
폭발
기자회견
주소
##신문
해봐라
다이
2개
우승
후원
즉시
##30
종목
천천
보다도
전면
몰려
막말
##oc
##교수
교체
##겠습니까
##혁명
때려
제재
니들은
나면
##저씨
내세
ai
번호
수백
양아치
수학
감각
크기
##라서
옮겨
싸우
하는가
나쁘
짜리
보니까
kbs
검증
충남
65
천천히
압박
##고요
욕심
##교육청
슈퍼
한쪽
9시
직무
한일
도둑
##플레이
습관
##공항
만의
거듭
한미
##인거
##던가
##먼트
ㅎㅎㅎ
진술
##프라
##진핑
근로자
2만
그렇다
일주일
주관
대사
카카오
건너
마시
대규모
알겠습니다
선배
##기를
주거
##조정
물질
예수
정작
##자나
고대
페이스
아닐까
필수
44
순수
떨어져
출마
다니는
##재단
외치
내는
예약
##투표
발굴
기원
이라니
코로나바이러스
패션
양성
정기
데뷔
##르지
##업계
##시험
문장
마약
대리
화된
시켰다
옹호
##공단
##트워크
##화점
##오고
##환자
전두환
새롭게
걸음
분열
안된다
2012년
꾸준히
매달
말았다
ㅉㅉㅉ
##하니
눈길
하라는
##주민
##문학
대안
지자체
st
##저리
오늘날
주체
느낀
##주자
탄생
했지
장비
제3
##담회
##차례
방지
이행
##상태
인가요
키우
모임
맞추
체제
지옥
49
드릴
##사장
레이
##을때
매수
##토록
끌고
##체계
무릎
##예요
폭행
대우
대법원
##연히
되니
착각
수많은
정답
로마
축하
꼴통
기생충
걸려
파괴
##사무
무죄
않나
영웅
이민
증시
듣는
정확히
##영화
집어
사무실
##퍼센트
호흡
모르겠다
##사태
흥미
않아도
is
됐다고
##ag
존중
눈빛
성도
판정
아들이
##기자
에어
억지
##선동
54
##연구원
로만
##지마라
자네
##조합
##친구
끼리
성향
일어난
님을
어쩌면
수립
왜구
입니까
##영상
47
43
보안
##정당
되었고
##비용
40대
##계약
무지
공약
개입
설득
완화
확신
##십니다
민심
밝히
##조치
##티브
##다란
##아도
안하고
감동
굉장
승인
투명
##은거
원전
듯한
기운
화되
##버린
취지
협조
부지
비정
##um
움직임
느그
했기
##다수
뇌물
분류
찍어
포장
감염증
거기서
정규
##는건
이시
했냐
비싸
시켜라
##공장
##주년
해양
예능
요인
클럽
심장
메르
박원
미술
지상
전형
맞다
중인
##는거다
발휘
##피스
앨범
있음을
해체
화면
되자
화학
부드
##실장
보조
취득
아닌가요
##감정
46
전개
집권
한심한
이틀
이어서
##드립니다
고정
들이나
다름
짧은
생존
아우
##조리
천하
##는데도
##치료
천안
##기구
똑똑
화가
##자원
육성
늙은
훌륭한
대만
똑바로
열정
버리고
##셨다
남한
그다
우울
응답
##려나
에휴
다루
올바
시진핑
베이
관객
##겁니다
##트리
리얼
##ac
브라
4년
객관
하네요
맞춤
만들기
괴롭
##가라
주사파
부과
99
전력
많고
사이비
3000
##av
20년
연애
##통합
원장
열었다
##수수색
웃기
이나라
죽이
제주도
##겹다
파리
병사
당한
##운전
조기
하는짓
법정
##보내
나베
유치원
달아
등등
동맹
관찰
주었다
어떠한
경향
철수
##게임
##줌마
##았을
##으므로
평등
안되는
얻을
##재판
사망자
읽어
원자
그러므로
연구원
잘하고
열리
빼앗
단독
##구려
꼬라지
##중동
이에요
##지자
##스토
##하겠다
##지마
아저씨
##다리
시인
믿는
소문
어서
##구석
##르기
상당히
걸린
핸드
##르크
##재산
음주
높다
##폐렴
진화
##og
공천
넣어
지는
너네
무언
##이었다
75
만일
증권
품질
지혜
검은
mbc
배려
사물
맞이
##더라구요
대해서도
아웃
편집
##자료
되냐
형제
돌파
끊임
에서만
4개
일대
##리트
자국민
##our
진중
민생
자영업자
유공자
해줄
싫다
##쳐서
균형
우린
보일
##로스
##대출
어쨌
미통
유형
할아버지
##장애
두산
압수수색
##선수
입학
전용
인원
##보수
사용자
##같이
지휘
연금
태어나
버리
##구역
내면
지인
영원히
짱개
청소
##보세요
##ov
##루킹
이념
감싸
종료
택배
이네요
하죠
##ist
발달
내지
##웨어
저질
하면서도
있어도
한것
들면
혁명
당황
알았다
##거고
난다
이모
비행기
넘게
극우
살려
신호
함부
##워요
##세금
싶었다
프리미
이가
국개
오로지
마세요
##거렸다
중이
에게서
##여야
적으로는
##th
해명
저거
전염
미사일
##한다는
좌우
읽고
정비
##있는데
##졌고
가자
호소
wh
##켰다
잠재
청주
프레임
##ess
##뮤니
##졌네
저게
합격
자율
##하네요
##대고
##나서
##00만
장점
맞고
나오면
58
미쳤
크리스
고등학교
빠진
6시
고유
된다면
62
지위
그러다
중대
그중
많은데
하하
상위
##즈니스
익숙
대놓고
크다
이끌어
온라인
##저히
맞은
화려
##행정
막아
나름
문정
에라이
법인
많았다
하든
할말
계좌
기상
잘했
##세상
일일
없게
해서는
되도록
먹은
결합
오랫
큰일
4명
후반
호주
5개
##자동
따위
상반기
폐기
한명
같아서
수강
150
협약
가시
계열
##필요
지닌
연관
페이스북
한숨
이겨
사로
하반기
매각
민주화
유도
김씨
선진국
질서
독서
전파
한두
아프리카
월드
장군
손실
깨닫
적당히
이므로
##공산
보였
노출
2위
관광객
연합
TV
출근
방어
메뉴
깜짝
말아
##란드
단속
만남
56
점심
좋다고
집계
이래서
뛰어난
될까
강하게
##테크
1번
올린
재밌
자국
저리
##집회
정신병자
##봐요
##할것
대가
##ers
의료진
만날
변명
지능
지사
##프레
아니지만
공통
원하는
인성
들어간
갖다
가을
있었지만
사실상
그만큼
걸고
##위해
어휴
보복
pr
##나가
파트
기쁨
자신감
원숭이
그놈
##야한다
아르
권은
지어
커다란
교육부
매출액
##and
대다수
장학
률이
당연한
폐쇄
당국
평범
나오고
##지며
다르다
##작용
버티
취임
끄덕
단순히
권이
거다
민노총
감히
들지
##ip
당사자
##하냐
아니었
##지능
할때
쉬운
동양
지점
굉장히
한달
아픈
입국금지
초반
누리
젊은이
아가리
드디어
부당
주시
불행
채권
##럽고
장악
무사
드리
마시고
문씨
##덩이
주어
방탄
적지
반박
했다면
코스피
없나
남은
공항
##전거
접종
내렸다
했나
되나
테러
과의
##if
당해
출입
불매운동
연간
금방
##저기
괜히
출산
무한
첫째
점차
##이즈
라서
안다
ㅜㅜ
##수석
##민족
골프
표창
들에게는
침묵
##그래
거절
하는구나
##줘라
붉은
예고
하나도
진입
드는
2주
왜곡
안심
그쪽
좋아요
화폐
됐고
싶지
제정신
전원
휴대폰
징계
추경
소상공
악플
##을까요
적합
194
배신
##낸다
그분
오랫동안
또라이
##등급
생태
마침내
나오지
으로만
일시
두려움
가볍
현대차
##야말
특허
활약
하지는
했으니
##했는데
가해자
종이
##방법
그래요
사드
##댓글
개별
##물관
##하던
되서
조중동
53
해주는
##대사
눈앞
내내
없었던
지니
##너스
##버리고
##노조
감시
##길래
비즈니스
조언
체포
아마도
##아파트
##포인트
##로소
끝내
아시
모르게
1조
조차
저자
자존심
##코스
연주
아깝
안철수
민원
있는거
2시
변호
취약
센터
초등
4차
조선일보
짓거리
##나다
사안
##고도
끝난
옳은
동참
이정도
59
동남
대북
유행
##는거냐
요금
##서트
##으신
환율
지하철
##어야지
대학생
##해졌다
시급
교환
##거리며
해제
##리다
##진흥
해지
##대중
##전략
찾을
입법
초등학교
##좌파
까지도
##가스
부회장
##심사
온다
식민
하시고
넘겨
떨어지는
되어서
곳곳
단식
매매
커뮤니
빨아
났다
머릿
세우
##순위
구글
선호
그렇지만
출전
일종
195
해왔다
##신고
부품
입술
##자식
##러움
이던
##결정
이득
공자
##소송
##니깐
마법
측정
짐승
강요
57
과장
##치면
##르신
마저
##란히
악화
##타기
여기저기
발사
밝힌
수고
타격
미쳐
##영장
미디어
##예술
률은
아줌마
이용자
멋진
즐길
##나간
##구먼
스터
부패
##가면서
소수
##미향
##파크
##따위
축소
이스
점수
환영
놀이
성폭행
수소
우리나라는
반발
##겠는데
단위
새누리당
이딴
올렸다
하지도
드루킹
##생산
들어가는
화장실
같네요
얼른
가상
욕망
##신청
고등
##금액
보내고
둘째
제가
창원
유학
직후
조각
##하이
돌아오
##의료
##운영
호구
##교회
헤어
양반
##준비
시청자
##서야
##지구
귀족
네트워크
이십
고집
저도
어째
든다
##서도
호남
저렴
50대
기득
정의당
앞장
률을
휴가
##부문
붙어
##됩니다
주주
##공간
적응
배출
아니라는
바이오
성에
고급
##연구소
64
2018
보관
저항
활성화
하에
초대
비대
건지
마땅
다스
re
아무래도
업종
##물고
경력
팔아
놓은
들어갔다
달라고
##한게
멈추
두려워
복귀
와이
수시
실체
##마리
##감독
하여야
구라
담아
11시
개방
##생명
복수
배운
그럼에도
##ㅠㅠ
만은
비싼
되는거
##두기
맞게
했네
스페인
구경
소화
유기
해볼
미개
##함이
연말
부처
##한국
임을
##케이션
##책임
썩은
##직한
좋게
고인
표준
공산당
함에
한건
시리즈
3개월
조만
재무
갖춘
무관
착용
##르트
수천
##답니다
테이
투쟁
독도
도구
해놓고
선임
번역
##구니
바라는
##비아
66
전국민
원리
1도
국민의당
감안
산다
제국
의존
나간
설마
자라
직전
잊지
##매매
일부러
가려
남겨
기재
매체
지진
피고인
안해
##쇼핑
운용
##빨리
강좌
이었고
윤미향
창의
##드려
스토리
##등록
다운
자유민주
##럭시
담긴
##되는
정경
동반
##시절
##ity
메르스
식물
2011년
충성
개성
캠페인
중도
제자
결심
##올림픽
##대전
못하면
##혜원
연봉
##쓰레기
법무부장관
하지마
북미
토대
먹어
##의장
ㅈㄹ
왜냐하면
1회
많아서
##따라
입원
어두
싶어서
##모델
3만
살아라
인용
대장
##공업
끊임없이
신라
이러니
알아야
규칙
살해
에나
##쓰고
개봉
제로
##대기
교류
영향력
넘들
##우리
##줬다
##검찰
##자동차
인공지능
계시
핑계
자전거
##리즘
on
빨간
체육
어지
입증
만으로도
회계
미통당
어르신
기다리고
어리석
걸리
있을까요
##었으면
노후
얻은
그간
이지요
##들었다
자제
에겐
com
늘어난
##피해
작전
신중
##절차
##하는게
뜨거운
기름
이런거
전제
조만간
입구
##교사
강간
적절한
비핵
봅니다
관람
해준
518
발급
올랐
##후보
않지만
##했고
학문
참으로
운전자
##사랑
추억
##가게
선전
갤럭시
일관
##농단
##걸음
실시간
##독재
##서울
for
아가
교활
하나요
##안타
The
##셨어요
야구
재판부
취재
도쿄
##비리
여지
##약품
##종자
모니
맥주
로도
올바른
받으면
없냐
살아남
##내기
돼요
193
침해
허락
핸드폰
한반도
##테인
무척
하시면
바쁘
연방
30년
으로써
죄다
이렇
보인
밖으로
##줘서
부진
오해
즉각
5명
퇴근
어려워
유전자
이른바
필리
5g
##사기
해봐
변동
확률
제대로
##관련
님께서
넓은
##지니
김일
혐오
위대한
##마저
있다가
갈아
로벌
보증
머릿속
들여다
고속
화제
이사장
##이라고
기대감
갈수록
하겠지
##르르
아름다
한정
##거면
##부지
매입
##ab
##협약
파견
매도
범행
침대
안타까
##놀이
욕구
내다
##tv
##루션
후손
##km
다르게
박원순
두번
소장
도저히
##대응
거대한
##었어
지껄
시체
연예인
정해
구름
본사
선동질
기어
방사능
##감사
##결과
물가
일반인
늘었다
##우면
##았습니다
살짝
폭망
무렵
쩝쩝
보게
체크
해온
잡을
어둠
##나면
되었습니다
명백
국방부
마누
그지
아이디
진상
##수도
멍청한
##잡이
##종합
프리미엄
출범
마당
안돼
다해
누굴
박수
##먹을
합시다
게시
태풍
로봇
몰라도
무상
##하신
제정
##ht
안좋
이분
##동물
잡은
##으라고
##고기
##훈련
임신
##추행
가기
일본인
##거리는
가방
군수
sbs
손혜원
재료
사로잡
서초
##미애
영양
알려진
생물
좋고
##주인
풍부
추석
종종
배제
배워
사업자
또다시
감당
국민연금
들어갈
##ard
향한
활발
##리티
예배
3차
않는다는
하고있
안된
3대
##효과
어떨
##권력
구역
자치
부딪
죽는
노릇
아닌지
##순간
피의자
5천
##인사
뽑은
##합시다
돼야
수집
않으
##어로
##est
정서
이길
감방
##었나
가동
도서관
저는
양국
##의사
보냈
근대
자발
실무
4대
오프
이여
성명
진지
벌레
##공동
##체제
cj
천지
##았지만
재벌
사회주
슬픔
했다가
가벼
자세히
면접
##는데요
제약
학부모
1분기
함이
사회주의
##느니
만들어서
더해
##방안
끌려
##힌다
##건축
어쨌든
##ㅉㅉ
문정부
국산
민주주
북괴
갖추
그는
##가기
b씨
되나요
이었습니다
어릴
가질
##개국
임상
재개
OOO들
우습
##ang
초청
##든가
재능
공작
오만
심정
진리
63
까요
청산
부채
이승
##ain
편의점
##버렸
받기
##oo
##청구
꼬리
as
2010년
그릇
시계
85
일방
수능
이라서
61
180
명분
그렇고
윤리
##40
취미
용어
조절
##통일
##주었다
##싶은
단단
수수료
하듯
트렌
하지말
좀비
하야
영감
고수
해주고
수령
뒤집어
웃었다
냈다
##플러스
틀린
연설
##무시
##개선
배당
##국제
##벌레
동해
있으나
그렇군요
출석
만났
공공기관
95
나만
흔히
비전
##시티
##국장
##주도
구현
지경
웃고
전해졌다
여겨
공주
문대통령
하길
##키는
오염
가량
어려울
##까봐
소프트
다음달
##사진
컬러
신설
##었어요
통상
하다니
소용
##준표
2019
지들이
오면
방탄소년
단기
##수기
##분간
끔찍
있을지
퇴직
##옵니다
노선
시나
구멍
노트
##잡아
해방
우한폐렴
치는
##재앙
인제
물타기
들다
con
치열
살아가는
인과
않기
김치
충돌
72
당초
편리
맞습니다
부르는
왜이
운운
틀림
비서
강도
황금
버린
따뜻한
##었지
벗어
시끄
채워
##스티
상실
##둥이
왼쪽
보급
정원
해상
192
##스런
##인줄
공중
영장
공산주의
불어
##도안
만든다
서양
현명
유출
7시
메모
진료
복합
한때
달고
공동체
차기
갑질
받아서
##무기
삭제
잡는
추세
진영
한글
경비
##통수
주먹
뜯어
성실
놀고
##아는
남탓
아이고
읽는
##집니다
미니
실내
개편
##바람
탈출
##조직
의회
죽고
장학금
##겠지요
장수
들끼리
여의
풍경
하던데
##ly
##이게
im
인연
su
##이라
몰래
##버렸다
8시
기기
살아야
정식
의결
be
##세포
전교
##협의회
인프라
시국
특혜
포항
모조리
죄인
물량
의자
아이폰
##80
피곤
보완
무게
장식
##청산
아쉽
고백
끌어내
극단
재수
성남
마이크
대폭
##19
발악
쓸데
코스닥
거야
되는지
##테인먼트
모으
동작
##사상
##음에도
파업
67
전공
동아
대학교
저장
친중
소름
##특별
보냈다
선박
이었는데
강연
##시켜
넣고
상인
##미래
400
네가
찾기
##었다는
##화국
##천시
적어
##축제
철도
방탄소년단
숨어
##인드
마치고
##터테인먼트
해보자
##렸을
블록
시상
화를
공소
있었습니다
빌려
임원
##프로그램
창피
권고
버렸다
##버려
##확인
##사무소
골목
안가
개정안
돌아가는
강아지
는데
곧바로
차관
순위
##았다고
문서
건데
공원
##아나
10명
넘어서
죽이고
이었지만
베네
외면
시골
##걸로
봤다
##스레
나와서
평양
##키지
순서
##리핑
인스타
대박
조상
자가격
마음속
도달
싫은
##과장
홍준표
고도
많네
##으세요
약국
획득
짐작
봐요
##빨갱이
##처벌
몰랐다
이도
잃어버
##일본
화로
부끄러운
오랜만
친환경
주면
주력
같지
##있고
##마스
##혁신
애정
플레이
1개
구석
가맹
##ong
길게
배상
빠져나
비로소
고작
유대
공짜
운행
##페이
##공무원
크고
##규제
무장
이재명
해왔
보라
충족
납부
##있어
클래
찍은
승부
쓰면
스타트
든지
##tr
위조
나지
즐겁
2017
성립
쓰기
담당자
흔적
마친
##없네
하지않
같고
입주
재단
관해
각오
단일
평창
서구
흥분
전기차
보편
들어온
일치
##ate
시범
조회
아니요
신상
느끼는
잘해
##인상
아이템
##클로
두드
어떻게든
##타령
##당한
수구
##그리
##유공자
되길
선사
늦게
잃은
워낙
태어난
##으시
4000
##케이
은퇴
매번
소환
썼다
성분
엄격
##하기도
채택
깨끗한
김대중
애비
던져
공익
유입
84
입시
이정
내밀
충실
않았던
##기까지
임직원
간담회
오고
웃으며
출판
당일
드러내
몇몇
예외
되었을
동영상
들께
##감염
파트너
전수
들어와
아끼
에서부터
법칙
ch
기가
챙기
al
친절
##하다고
죄송합니다
120
정착
지은
선출
미만
##시마
경로
지표
격려
실업
주차장
바퀴
대통
##다는게
있으니까
위법
##작업
태국
##ak
많을
##모씨
화장품
세부
이긴
##렸고
중고
마누라
초점
##답게
##대변
예의
휴식
상임
요새
관세
##고는
고문
거두
2016
여섯
스피
패배
연령
가가
석유
내가
##te
만세
##리나
아파
목포
없기
68
도와드릴
유발
돌아다니
pc
##진짜
들어갔
가르쳐
부러
##물질
77
##렬한
상생
꿈꾸
상사
##출신
시민단체
명절
정확한
개막
있죠
##할거
어딘
블루
신선
모니터
불쌍한
##ore
가스
아픔
서서히
##반대
지고
갖는
대충
##현장
##건강
관측
가볍게
1등
들보다
##치며
입만
69
타령
담은
##어준
문가
##하도록
대단한
통보
##라운드
##가자
만만
급여
지역구
임무
나타난
수주
써야
10분
2020
널리
뮤지
않았지만
색깔
장치
소속사
느꼈다
농촌
##eo
방위
마디
이구나
##임스
인격
보세요
치킨
의하여
쫓아
##스러
대대
힘내세요
라디오
지방자치
오른쪽
##로드
패턴
안고
트위
광장
신도
외모
어머
찾고
재인
##테니
추미애
스위
느끼고
구별
김경
##으러
보아
시내
될까요
##판매
없다면
불평
##무역
연대
종로
않아서
##렸던
신발
성추행
죽일
나라냐
푸른
했었다
태어
올리고
심한
님과
##예산
글자
2008년
고려해
캐나다
겪고
신한
않았고
응급
묘사
간신
##지대
개학
##둘러
조화
당하고
##집행
##르며
내야
남부
##었네
3시
싶은데
역겨
찬양
10대
하여간
훼손
##모습
화성
작동
누워
구상
지연
##리면서
누나
건립
사냥
잡지
되기도
잡았다
##했다고
좌좀
편성
회담
나라는
##졌다고
까닭
한도
현행
만들어진
거리두기
간절
나고
##봉사
사서
##그릇
놀랍
바위
성능
이낙
마냥
종자
그림자
붙여
협업
##제한
밀려
##쳐먹
식민지
압도
먹으면
화이트
##자마자
즐거움
##어지는
##겠니
않았을
##선언
##라엘
할일
쉴드
낭비
상속
##받아
5시
하기는
건조
선도
콘서트
환상
국정원
문명
1호
문득
반려
##패스
마쳤다
자위
죽창
점유
구성원
##청원
##속도
생길
학자
한강
고령
앉아서
교도
농민
비유
##60
##자연
대립
불교
입지
후배
인건
##라우드
였고
##투어
계신
급격
독특
하얀
스크
지불
##구멍
##업무
보존
같으면
권위
되니까
주저
호기
##공산당
##ill
보낼
충청
##해야지
##라시
나눔
화물
지출
그런거
##기온
과일
일당
낫다
지역사회
없던
위주
##설팅
사죄
##오면
##cc
독재자
##미디
가를
개그
##셨나요
말아먹
잃고
착한
합류
구간
바라보는
등신
멀쩡
힘들어
검찰총장
홍어
다녔
##사이트
하는거지
##았으면
##본부장
소요
##연대
##확실
##행동
일어날
부추
신임
무려
##와의
입맛
영광
해봤
##공정
에야
근육
믿어
바라보
돼서
명품
배터리
해봐야
할것
끝났
갖게
정유
이순
##되고
오류
3위
재앙이
비트
##이닝
##배상
73
비례대표
이사람
들로부터
##받고
2009년
인하
간호사
낮아
##BS
##피아
교과
풀이
본래
##박스
바라보았다
타이틀
##메달
항목
알기
가계
##하는지
2억
살다
떠들
##싸움
알려져
하자면
개설
세운
계층
담겨
수리
##운용
화해
문제점
##인것
##릅니다
묻는
##가운
정성
오리
세트
신념
다행히
씨부
다는
6개
연인
산책
증인
갈라
잘라
압력
않아요
해야할
모를
나은
하자고
해보면
sh
삼아
##덩어리
의뢰
자빠졌네
들이랑
어린이집
##경쟁
기온
하도
충전
지나치게
들까지
하느라
1시간
거론
4시
##11
100만
가깝
소위
2분기
하느냐
하고도
강세
붕괴
##장비
성질
텔레
님도
제조업
육체
스타트업
인종
되세요
와인
이르는
74
개인정보
##00억원
이스라엘
##보단
하느
##평균
말자
##동생
저지른
##있게
##인력
##우기
자가격리
##분석
디스
##타고
동성
##산시
많지
등급
즐거운
백화점
영입
매주
채무
2015
런던
ㅂㅅ
##하라
할거
합병
생일
##추어
정지
좃선
수장
철회
##평화
나갔다
써서
강사
정경심
추락
##명령
유니클로
숨겨
예쁘
용인
거울
지원금
lg전자
한남
파는
마구
해보고
신입
장르
책상
##래기
##ight
노사
공인
대개
연극
떠난
몰고
부끄럽
이참
즐겨
##식으로
##내야
상업
됐던
사모
##내용
간부
6000
유승
발목
듣지
내기
담보
말라
같네
화는
대결
##비전
아이돌
연휴
테스트
전역
아라
문슬람
양식
좀더
스테
시키기
급증
##베이
참가자
공직
세포
으킨
##기능
데이
de
##해질
이낙연
잔뜩
만기
##지원금
돌아온
##세트
지명
천재
합동
항의
막고
sp
청약
적발
##바다
##았네
신비
존나
쯧쯧
대륙
있는게
##기획
찍고
##용품
같음
한방
##사일
살피
100만원
그다음
양보
##자본
승진
##시즌
동부
대해선
태양광
얻고
접속
3분기
맡은
##tt
기뻐
돈벌
산림
쪽팔
##art
수호
##자는
받으며
국내외
시달
온몸
전지
주최
##중심
대접
견제
물품
무덤
##거리고
##미아
팀장
장례
홈런
추적
주자
시신
선두
71
##겠소
이슬람
놀러
더듬
수비
넘치는
레드
국토부
산불
##지말
##사이
물려
10억
줄어들
감수
부활
2의
이되
기후
쌓아
원고
응시
심의
##바지
들인
끝나고
##변화
트위터
지났
중학교
조롱
##했지만
사면
##용차
정신나간
앞세
의학
행태
도내
지었다
##한건
가다
이대
무언가
남쪽
자고
있잖아
##고리
괜찮은
위장
or
바뀐
살면서
육아
리그
##파이
화려한
기아
##ive
일어나는
##을수
6명
짓고
정은이
##혀서
성취
서명
광주시
고구려
##드라마
원망
ap
내수
모욕
인턴
전염병
걸릴
한걸
지나지
기쁘
스승
##우선
관여
혈세
한나라
되지만
가공
##피언
시정
범인
열린다
중독
##만이
삼십
모색
괴물
필리핀
소주
##식간
##입국
나설
현황
##고한
무력
계단
고스
터뜨
할려고
##지나
국경
대량
수밖
이만희
하여금
191
애기
견해
드러나
도발
바깥
eu
점령
어떡
##체험
할까요
였는데
일원
더한
시비
진작
##ob
고쳐
방치
귀신
둘다
사법부
시다
신화
##가는데
##하하
##대문
##기록
##사업자
##분야
지향
창작
예쁜
입력
묻고
착수
##기면
계절
gs
자문
추방
지키고
잘하
작곡
문구
2회
##ue
증언
대상자
소대가리
##ts
##ect
하여튼
한층
##었는지
주머니
성범죄
##웠던
다짐
바꿀
재발
전후
오프라인
##졌던
##논리
##ie
조선일
외교부
말아야
##수익
떨어졌다
##방향
거대
2021년
수면
될지
투수
좋아하
초과
##히지
출동
##회관
지키는
2번
나서서
해산
동남아
법무장관
소신
일행
무인
##하다는
한사람
이씨
모범
마트
지소
가사
통장
못했던
##실까요
양도
전교조
##ps
일기
중립
들어오는
##실점
당첨
들어가서
조장
##전환
놀라운
현안
피로
##사는
절망
이쯤
##드로
19로
통치
78
##디션
##자유
민정
해군
잔인
인지도
준수
잘한다
매니
고전
76
연수
하수
기다리
항소
될것
2배
일곱
있었을
좋은데
트렌드
전신
자사
못차
창문
상무
온통
이신
호기심
독립운동
공산주
##보건
와중
전일
스케
공평
졸라
꼼수
##빠진
강릉
있는것
10만
##화학
88
사방
새정치
##ine
파고
탈북
생겼다
서울중앙
국정농단
82
최후
블로
##중국
합법
않다는
부실
데모
##tbc
이해찬
정상회담
불확실
##없고
사시
바라보고
재고
분쟁
죽인
돌입
브라질
이와
선제
감추
초래
##총회
유의
5만
##ith
경선
민감
차고
##케어
과목
북쪽
##BC
솔루션
맞을
##OOO
##보이
밝은
지리
##짓거리
막기
시는
##선생
드러났다
서해
하나하나
ar
움직이
언론사
나불
순식간
1심
유동
지네
##방지
##드리겠습니다
##수지
계열사
몇년
##레이드
슬프
##는다고
시킨다
교육감
나갔
양쪽
##클럽
파티
##전화
비극
저놈
유아
유죄
구제
월드컵
이였
##연맹
##더냐
써라
나누어
시나리오
포스코
세뇌
##놨다
팔아먹
그러지
상승세
##ell
국무총리
코미디
성의
전화번호
꺼져
##시코
2014
뚜렷
천국
최신
월세
##점검
he
메인
으로서의
음주운전
안하
소멸
공영
##관위
##없어
형편
주한
시켜서
##대변인
떳떳
잖아
싱가
전월
더블
특별히
넘쳐
기상청
김종
내어
되었다고
빅데
다음날
체력
약자
편하게
양산
처지
소프트웨어
명성
모순
##래요
국토교통
독점
여수
##나보네
##현실
했을까
질환
글쎄
##해진다
맞서
고의
신부
##안보
예금
유용
##70
tr
들어왔다
##사리
이사회
##원전
소감
성매매
침략
복잡한
해고
##석희
그야말
##는구나
귀찮
하자는
##월드
모르겠
##하는것
더러
공지
율은
이어졌다
##기금
엉망
다닐
추모
##의무
피아
귀국
##유지
기각
리스크
왠지
않냐
##장치
새해
##대한민국
사자
조달
끝날
중구
내외
게재
전광
홀로
품목
테이블
했더니
파이
온도
7000
##아니라
민중
로그
베스트
10개
생계
##더군요
유족
2000년
##ib
인줄
##경찰서
이치
8000
즐기는
파일
첨단
##6명
번째
나가서
날카
줄여
##든다
1시
논쟁
넘은
##다는거
vs
인스타그램
수영
언젠가
흡수
알리
한자
만화
##어지고
##졌을
광역
시사
##하우
중요성
생성
##렸는데
적정
불가피
##심판
배우고
##바이오
79
##협정
##범위
방금
모인
심상
김제
##동자
하더라
행정부
##바라
할줄
달하는
이잖아
##요금
앞뒤
부하
어느새
명칭
경주
이런것
더구나
##12
손바닥
##cm
같냐
유전
##오지
서울시장
어때
##차게
천벌
집착
##새기
반갑
요양
공직자
지나가는
ex
여태
사우
싸워
맞는말
유가족
라의
유연
구원
재활
배우자
3억
눌러
로맨
저번
##런스
이룬
요건
내릴
##ver
##컨대
거품
엔진
반미
있구나
중얼
##축구
대한항공
임대료
중동
쳐먹
높게
흐르는
nh
추측
조카
부정선거
##결제
당분간
##인가요
중점
초딩
190
제고
되돌아
행보
##미나
감염자
김경수
부리
얼음
아깝다
수급
통증
바쁜
이어질
이야말
박살
버려
믿지
##까지는
##뱅크
드러냈다
##스테
##거니
이어지는
되었던
설문
사나
망해
이의
##포르
##협상
한동안
접어
선거법
##텔레
##로움
어렵게
##쓴다
##드라
못해서
들과의
함은
거친
이천
무소
과감
현정부
지성
터져
모르지만
교통사고
면제
##널드
이순신
봉쇄
발매
담고
만도
다이어
막상
구단
가져다
이상한
타자
위원회
국개의원
불렀다
##기부
3번
탑재
##시요
노란
으니
음료
##근무
##레이션
소련
힘들게
으면
사지
싫어하는
##국회
변신
선별
98
##인듯
스럽고
으켜
이너
줘야
화웨이
썩어
##기가
##호텔
후속
깔끔
진주
조명
##일이
간편
지극
서울중앙지
저축
어마
높여
대고
패스트
목격
대깨문들
아메
해야만
##규직
물류
백제
강행
모래
입사
꼰대
걷어
미칠
치유
폭탄
도심
비명
회수
##카이
##러리
찌질
구청장
망가
바라보며
취향
않는다면
##구장
Ch
##어졌다
##4명
조선시대
암호
몹시
진동
##대화
꾼들
포르
금강
##보드
이끄
##5명
가라앉
안달
없어도
로서의
면역
본능
즐기
허구
맡아
살았
##이용
통합당
입은
투어
역겹다
이마
##3명
##보증
2층
좋아서
##여성
사주
버닝
##이라는
##부인
아름다움
나라꼴
나가는
끼고
살수
작정
정황
##게도
골라
##추진
촉진
##버그
곤란
##통제
##있지
아무튼
황교활
허공
##쾌한
급등
저소득
청춘
로스
3분
솔로
국익
돌리
kbo
있었기
도리
양자
살게
이끌고
같으니
4만
세탁
계급
##카페
쓴다
나대
페이지
##세점
들처럼
감상
결의
89
뛰어나
만들어야
경매
마르
##무지
배울
김학
오바
저건
벤처
원활
7명
##상담
jtbc
마크
##ㅜㅜ
됐다는
일어났다
여건
##주주
테마
특권
해줘
유엔
##췄다
##와라
마인드
하나만
찾은
pd
박그
##우지
싱글
개나
떨어질
군주
물결
이루어진
엉뚱
까지만
총괄
챔피언
만나서
민식
높였다
농담
컨설팅
기세
##폭력
an
##시위
##람회
틀어
않는다고
되기를
꺼져라
잘살
##차별
애니
태평
##스턴
적립
##내려
도중
##학습
##개사
하나로
미루
특유
##있나
수습
다하겠다
시집
fr
주재
ip
받아들여
##졌다는
가졌다
##지리
##머스
끝나면
본회의
조례
국민세금
무공
인을
##천원
개헌
##대장
##가도
정규직
전설
##기전
염려
패키지
##법인
하므로
Pr
표창장
##할듯
적을
벌이
사라져
60대
지침
##하였다
기차
강경
권에
##으론
스러
으로의
저딴
사라진
##배우
있으므로
##레인
농협
얻는
떠나서
화살
모르겠지만
브리핑
##아웃
후쿠
강남구
##ub
7년
헌신
망치
오죽
없도록
싸이
너거
교실
##텔레콤
아가씨
##니까요
비웃
간접
주신
이주
해본
##심리
절감
92
성숙
멕시코
##타인
그러는
##쟁이
견디
02
차려
도박
여파
무뇌
나선다
따져
치러
싶으면
##노인
스튜
##사용
한결
입찰
계집
박스
의하면
83
##7명
과학기술
##천군
둘러싼
##아닌
자회사
##ld
듣기
가벼운
부사장
세우고
와도
놀란
시세
길거리
군산
표면
중공
##중공업
##원장
##마음
##닉스
자진
스키
86
ceo
최적
농가
도와주
클라우드
2루
In
한겨
놓여
##주차
##트랙
##여개
순매
리더십
교도소
##정지
##겠구나
들이지
뮤직
250
붙잡
부위
소외
싶어요
##마켓
화보
종전
2007년
바지
바닷
결단
되찾
한전
강원도
신제품
철거
가이드
##00명
김어준
##타운
100년
##테스
최상
라로
부작용
5분
울고
귀여
##주행
##하루
##가루
그네
##어질
알았는데
줄줄
보좌
설비
까지의
플라
##1명
되겠네
하의
근원
##얘기
여권
유포
증정
내리고
##었냐
하느님
마이너스
문제인
지방자치단체
생생
##ta
##인증
빨갱
##되지
마녀
살아있는
적폐청산
용도
들이었다
아니라면
대지
당대표
여론조작
that
##유치
윤석렬
들인데
유력
터키
원천
시중
새겨
농사
지나면
한국시간
먹지
모르나
각국
춘천
대외
##의견
여가
파워
##밀한
##부담
천연
##아아
지니고
끌어올
일어났
24시간
건드
명의
치우
보건복지
엄중
보조금
##청사
잡혀
##퍼스
티비
살림
리얼미터
당원
시가
보네
아직까지
##릭스
##18
1층
##차량
##장난
손자
사업장
파란
들이네
##보장
보여주고
09
연상
허허
하였고
##있음
##대국
기다리는
북부
조종
아닙니까
법령
바른미래
삭발
앞둔
저주
흑인
느낀다
지도부
음모
위선자
##이유
소상공인
가맹점
영토
##내며
효력
왕자
##서서
미성
##차이즈
퇴출
되겠다
##소설
엘리
든든
##디언
사악
해안
떨어뜨
##학원
억제
멈춰
인건비
깨어
부디
뮤지컬
손석희
119
외환
나타냈다
하시길
특이
무거운
있겠지만
윤총장
들이야
##으면서도
결승
형상
폐렴
##달아
##티스트
냉장
도민
맥락
##로서
국토교통부
지지합니다
됐으며
##해지고
학대
갑작
달린
되었는데
보러
스티
무서워
##풀이
극장
ㄷㄷ
못된
패스
날려
##박한
상세
메일
##동맹
이끄는
사이버
발송
나빠
절실
이들
필자
고요
늦은
뭐라
알수
##재생
횡령
우유
이언
##내지
세무
줄기
그러게
반짝
돌렸다
신앙
이를
##임금
수색
고시
해먹
없었고
자본주의
가지가지
##2명
##주식
##입자
함께하는
라이브
도널드
약한
##외교
위생
같애
##가던
##해지
##all
함부로
비정규직
음원
##순환
입금
이런데
살지
좌익
이런게
안중
직권
외출
식량
카이
##소비
우연
않은가
소셜
커뮤니티
정직
좁은
건축물
그런지
최소한
식구
부적
조그
보여준다
라이프
가문
소매
게이
정한
김영
튀어나
집합
명시
면상
##ich
보유한
##시키고
무림
보험료
야기
##리니
소원
##역사
돌아왔다
없네요
이명박근혜
비대면
변수
##마니
냉정
맡고
도모
어우
감탄
육군
물고기
해수
##다니는
여사
불안감
기적
되었다는
본성
다니고
인명
##으려는
ㅅㅂ
##박물관
위축
##잘못
차트
엄청나게
달콤
간주
결혼식
부총리
보여주는
##ng
째로
##꺼다
사립
적이지
##마이
고성
꼼꼼
출생
사소
##데이
찾아가
사연
##마을
##소식
날개
해결책
원수
나란히
그러시
경호
##연수
물러나
다닌
##해지는
서둘러
국어
##하더니
##알고
대국민
##미사일
율이
어두운
주어진
##수엘
도와드릴까요
들어왔
스웨
##을텐
몰라서
벌어진
역전
공고
화상
폭동
중국몽
유감
발상
소독
공략
해설
낯선
최씨
하되
지난주
파기
단호
##스탄
동정
석방
##대행
조지
부탁드립니다
무섭다
##스럽게
유효
코리아
##렸다고
데요
중반
##실험
##백화점
제압
두렵
##어스
##카데
##ust
##상승
명심
구해
갖추고
87
부장판사
##si
##건가요
임차
##싱턴
##pl
##담당
도서
찾았다
##제일
##셉트
포함한
##망신
뿐이다
시키지
오십
6년
의외
구속영장
먹여
nc
수록
정면
올릴
재건축
있느냐
망설
유혹
오를
절대로
이정도면
아랫
일각
비정상
##정상
##겠군
출간
##달라는
위탁
국민의힘
하다면
갖춰
##8명
배웠
참사
보여준
##남자
가중
94
느끼게
mc
전장
##자격
되거나
내뱉
거고
슬픈
버릴
##았다는
과학자
당기
스토
싶을
대단히
울음
그제
노하우
죽어나
어쩌다
큰소리
선조
지겹다
##겠느냐
설레
위치한
그만해라
역대급
93
가전
탁월
인거
새키
길이
성경
##ex
알렉
너나
믿는다
작자
죽어도
수도권
우연히
96
##주사
있네요
말투
해외여행
프랜
코드
일환
##통합당
##밀히
적게
그토록
박탈
저런것
그런데도
어쩔수
지령
일요일
맑은
출장
모은
오르는
지킬
혈액
스펙
만나고
##브리
상환
기술력
##가다
97
운송
약점
건전
공판
상자
##제국
겪는
쇼핑몰
가도
##가나
by
하드
없으며
들하고
##가네
확충
위대
오토
가즈
버튼
어딜
sk텔레콤
파도
##ere
##받침
떨고
01
녹음
안될
8명
##경북
##내서
##네시아
12시
시상식
승객
남긴
들게
##고생
##음악
신세계
##ee
초월
##스키
난민
만원
싶다는
전사
20분
여경
##재난
##렸습니다
대항
중재
정도면
친북
액션
##pg
##었으니
탑승
안타깝다
이력
망신
고지
##드린다
야간
김포
##트롤
셋째
심하게
살면
##수산
의해서
격차
##회의실
호수
법조
유산
##ort
많습니다
적도
유가
책임감
##장기
가입자
un
베네수엘
명복
욕먹
전무
지방선거
차분
웃는
##어링
##스포츠
떨어지
지소미아
조씨
환경부
##늦게
괜찮아
보소
있겠다
조리
싱가포르
높이고
융합
고마워
하곤
감기
있었다는
차리
##해주는
##카락
그러다가
함과
은근
##이냐
##보도
##수당
##동네
국채
지만
##카데미
##해보
숙박
하우스
로서는
웃긴
부드러운
주간
민폐
심화
참조
81
사후
좌절
##을것
##나갈
##5억원
해준다
##져도
선포
은혜
점포
더더
2시간
판매량
질투
워크
흑자
패거리
##마는
업무협약
미워
##광고
늘고
대거
섭취
그런가
못받
##ud
하노
문화재
##테일
에다가
따르는
고교
수련
##방위
##ice
7개
짜고
등교
치명
##수단
누적
좋았다
부른다
4분기
재생
생기면
10만원
옮긴
상향
이단
##한번
어색
페이
스런
##미술
돌아갈
이제야
오피스
용산
유로
휘두
서부
청렴
읽을
짜파
성폭력
비트코
자부
합쳐
성별
머리카락
다이어트
you
##NA
들에게도
적화
##기념
좋습니다
03
수신
내달
하셨다
##나마
어쩌고
우울증
##pr
##는지도
있으신
침몰
네놈
이집
둘러싸
##보게
최우선
조작질
##ure
관행
야외
경찰관
동성애
먹이
국적
2천
##짜리
##폭탄
블록체
##졌는데
감지
##하기로
##9명
머니
돋보
##저런
죽었다
##못해
비하면
덮어
준공
##간첩
전액
유권자
떠올랐다
무효
통하여
버전
##해양
바른미래당
##버릴
깜빵
하겠지만
##문서
지켜야
말라고
답이다
반가
전담
얼마든지
교과서
sm
##코드
악질
##분열
서쪽
받아라
열차
100명
새삼
병력
하잖아
##kg
상해
동화
페르
회피
안개
있었다고
된거
있긴
##리네
잘되
다르지
이군
떠들어
분산
##놓았다
종사자
해진
##동원
라가
줄었다
머무
그돈
이별
##수호
##총선
되던
##ge
##보상
##개인
보석
##더라면
득점
멸망
좋아해요
무의식
심각한
선비
들어올
만났다
추악
##공급
그니까
부합
앞선
1항
##타임
종식
해달라고
합니까
라에
이쪽
제이
조항
대표팀
가까워
콘셉트
##야구
##미디어
밥그릇
건국
##하시는
했음
박물관
##마크
유독
이라면서
공매
신성
됐는데
일베충
아사
##업소
개시
##택시
단장
휘둘
스탠
아티스트
##yp
타는
##발표
걸었다
##치면서
##iz
하는거야
양상
##ctv
피아노
##마스크
##벤처
일상생활
##됐다
전직
간섭
역학
손님
실정
좋겠어요
##어마
##소서
로드
타당
소지
손상
약세
팔고
진로
부른
불과하다
였지만
해운
##메이션
##개소
##기회
사라지고
대면
쏘아
본부장
돕는
경위
클릭
부가
아버
##는다면
반전
##ber
토론회
도약
행운
향기
건의
멋지
강점
신용카드
앉은
뒷받침
##거래소
##유럽
미성년
캠프
##단위
사리
백악
놀아
중시
에서나
선행
병역
##니즘
드론
##봅니다
소금
소음
따르
보고도
한시
##조국
금호
손해배상
##💙💙
##공화국
##할지
인도네시아
부각
개척
고장
안산
동쪽
##기소
##모션
##종일
없애고
at
더불당
내려다
금속
##속히
##주니
쓸모
소규모
##공학
한꺼
권자
후기
##셔도
폭로
##참여
살아온
끄덕였다
지키기
##있냐
됐지만
##영웅
##ci
가속
법치
드릴게요
돌아다
##판결
계정
189
산업혁명
노려
##위한
##동력
##덜란드
##통상
##졌지만
동북
제사
고맙다
좋았
먹었다
언덕
숙소
호응
종일
단축
코치
권의
##플레
이불
고사
환장
##위반
##미군
관내
##ff
이란다
##투쟁
21세기
잊어버
김제동
일본군
무작
않다고
##스는
탈원전
넘어가
롭고
모금
끼어
파면
해줘야
모니터링
국민청원
김성
원유
정신차려라
##라스틱
한창
나타나는
감성팔
##스피
봤는데
백수
##ment
안됩니다
##만달러
삼국
이새끼
##렴치
3회
도지사
무선
남의
그다지
안타까운
주방
수여
자격증
포스트
불량
물음
실장
잘난
##들도
인테
한꺼번
그러냐
##래곤
힘입
궁극
사마
워싱턴
연구소
급히
염병
인멸
자질
프랜차이즈
직장인
##올라
들으면
얻었다
뛰어넘
##탄핵
너도
적시
지역경제
##비율
##질러
##자가
노벨
아는데
지각
애써
같다고
깡패
##갑니다
##질환
원정
##방울
##부족
##어지
죽어라
자화
##좌빨
##act
현직
##시트
겸손
몽골
된장
적일
못하면서
참나
석탄
총재
화합
##ik
##철도
날짜
없으니까
정무
##령관
##공연
희생자
어쩐
헬스
네덜란드
헤드
발의
반등
감염병
시키면
첫날
탄압
##쳐라
사명
해줬
##유예
복구
친척
동지
사단
지극히
그랬다
cctv
찌라시
체감
##재료
화에
##먹은
학살
##기반
전광훈
ㅇㅇ
##왔던
열등
문제지
##통화
침체
##매국
##세스
##소통
하위
쿠폰
공화
오기
왕따
납품
##의학
엉덩이
지로
옳지
음식점
못살
키우는
농도
고등학생
과세
인형
##포트
##데요
않음
하셔서
기구
연구개발
조폭
짓는
두루
특화
##토론
with
등판
간단한
즐겁게
대학원
겨냥
농산물
다른나라
유해
단점
배포
이정부
쥐고
##동기
분기
책임자
##거냐
사흘
##겨서
항공기
탄력
바르
관념
한복
##급여
##포구
단정
저래
이따
한진
신세
수법
증오
소유자
나니
표기
##qu
미국인
아쉬움
받았다고
산하
##개념
##부처
들어가면
##많이
##사유
##주신
중부
##전기
내보
하겠냐
사라졌다
##학기
기조
새기
배정
##끄러
##준다고
차질
아름답
면허
스페
정하는
율을
녹색
위상
##주택자
우물
##아니고
슬퍼
거꾸
선관위
나타났
그렇습니다
명목
매니저
백악관
억압
살리
삼진
친박
국제사회
속상
##키로
민정수석
유재
당하는
향했다
우리나
감자
별다른
##쓰는
나서는
그리하여
살펴보면
없는것
않으며
복원
##유산
##스트라
##정기
깊게
면적
주류
포착
신축
해경
##3억원
이수
민주노총
짜파구리
영구
트로
##테이
커플
##좋은
늙은이
##6억원
느껴지는
##하지말고
맙시다
이완
금메달
여신
파렴치
##렸다는
보건복지부
정국
빌라
지목
보육
##대구
순천
##광장
열렸다
##걱정
##취급
당은
##백질
##틀러
학술
지가
대략
##생물
호랑
데다
##안정
그치
세웠다
인쇄
갑니다
오르고
제법
않나요
뒤통수
세일
수렴
5억
##려도
2006년
##셔요
뻔뻔한
뜨고
청탁
징징
커뮤니케이션
블로그
##사원
##우며
불필요
좋겠네요
실종
지켜보
발광
잡기
모여서
기호
강호
컴백
인데요
안하는
동조
##혐의
끌었다
##디스
품고
중견
너머
저능
때리
##시피
남기
##팀장
##투스
St
거칠
몇십
안쪽
##NS
어마어마
싶습니다
건강한
08
흥행
##4억원
8개
잘못한
어울리는
##ae
건네
##대요
여긴
##투리
야생
들이라
현정
서술
몇명
##군수
가관
kia
2조
##ass
고무
축적
하겠네
냉장고
##워드
감찰
순환
먹기
생긴다
##훼손
알면
이마트
연동
##시나
움직이는
번쩍
프로모션
불러일
고마워요
많다는
변해
##ant
놓아
보살
그전
알리는
법대
중개
저절
05
면담
어린아이
##태료
열기
사대
상한
이겠지
콜라
신혼
김일성
스위스
us
인내
나타난다
안주
명상
떨어지고
이어지고
비하
3년간
겁니다
최고위원
개뿔
성으로
키스
술집
##커녕
대문
직면
##그런
좌표
핑크
도시락
남해
약물
##없음
##ence
베이징
##ah
한해
2005년
##을듯
설사
두는
관료
마음대로
##였던
메이저
발효
##이지만
##킬로
##을지
빕니다
찾지
한국어
잘못했
상가
600
우정
일제히
들먹
싹다
처방
##7억원
높고
구호
확립
보았
하는거냐
하고싶
사원
나섰
올해는
순실
캐시
기획재
철학자
급락
양육
아닌듯
맡겨
간사
봉사활동
##ame
##조제
으키는
모았다
##린다고
있어라
아홉
망하게
##입장
##하우스
개미
후쿠시마
실용
처녀
no
밝히고
##per
납득
그만하고
언제나
내정
10여
창고
##었기
중년
과태료
뷰티
했어야
##ear
##모임
밀고
주석
##의미
보건소
##end
금감
##거품
쉬는
우아
보단
없어져야
91
탈퇴
구조조정
텔레비전
많았
앉았다
##버트
바꾼
나타내
LG
##시나요
신사
주식시장
##거부
건강보험
더럽
왜놈
알면서도
##투기
충동
##부채
명문
몰락
않았다는
##ark
대권
가의
전재
최강
제작진
용역
유흥
잠수
지긋
문어
반납
정밀
우습게
사인
있거나
##데스
출국
##는다는
폭등
##봤자
내려오
슬슬
줄이고
##25
안팎
미스터
이밖
들어도
기법
김진
구두
##레일
초등학생
##공부
##작전
##북한
##으셨
##개정
냐고
답다
불꽃
잊고
바람직
이집트
데이트
묵묵
발명
목욕
힘입어
구미
떠났다
##오염
우리국민
병행
##바이트
나랏
밀접
fc
##스카
박영
훗날
##블릿
헌법재판
사무총장
##뒀다
돌고
국장
일가
고스란히
##제약
많아요
백인
유저
미처
##구성
남지
보전
##스티벌
영동
기지
활력
모이
실상
접촉자
이인
인다
##채널
##일세
클래식
교주
쥐어
에까지
동구
늘려
불공정
였습니다
족속
##십시요
죽였
싫으면
보여줄
성희
님들이
은폐
##들여
ㅈㄴ
개돼지로
측근
크리스마스
##age
생리
싫어서
막대한
##박이
비겁
##2억원
사생활
인테리어
재현
죽기
비틀
늘어날
이루고
적이며
편입
서면
크루
유승민
기부금
일지
공산주의자
그만두
안됨
##학회
부유
당했
사고방식
살던
떠날
소형
행진
마차
미래통합당
차려라
캠핑
##현상
##밀리
##남용
할배
##MF
일보
##90
장제
터진
날뛰
##납니다
들었던
아리
아마존
##드리고
별개
생애
누릴
쿠팡
먹고살
##해줄
공기업
일삼
대목
##로워
편견
교황
버릇
까고
파산
##나가는
내주
국고
일산
##기다
##차원
5000만원
불륜
##소방
반란
배고
가치관
지난번
지민
나가고
있겠지
##엑스
컸다
낳고
등산
하는걸
몰입
파탄
수험
얼어
##진흥원
실감
변함
##보복
##8억원
뿐이
##린지
##가량
손목
국세
당할
불길
어긋
니는
무더
배급
##렉션
##너무
마사
과실
사우디
스크린
추종
과시
케이블
머저리
선진
##지표
##못한
적대
압수
할듯
걸레
지식인
##면허
제어
원자력
##느리
소득주도
표명
토요일
재앙아
낚시
중원
스파
패러
경유
네들
됨에
박차
비공개
사귀
살아갈
##손실
무능력
고립
##사례
##아냐
##는지는
광복
오라
추후
일체
잘한
포트
여자친구
해질
인대통령
이르기까지
중지
##부들
##겠고
lh
배후
go
실리
아닌것
주시면
나눈
토끼
총선때
##양반
벼슬
예민
##전선
##킨다
##음식
주한미군
임종
전시회
저걸
130
##리는게
일본놈
포괄
##한다면
영주
##시고요
##세이
##타워
해달라
싶다고
증대
쳤다
서방
4번
적이었다
굶어
tvn
##공동체
됐을
없구나
##법상
커지고
쪽발
##대원
원격
키우고
취해
위임
차가운
##스러워
잠시만
하셔야
과잉
고만
농장
##호선
110
맡았다
엉뚱한
넘들이
스웨덴
피할
바꾸고
눈동자
드물
##먼스
부친
##걸리
세련
우위
포도
증권사
비열
##투자자
찍소리
찾아볼
낮추
단백질
##소재
조합원
##있어요
로비
유인
드라이
이리저리
정통
불렀
찾아서
무겁
15년
역겨운
##에는
치료제
부도
급식
가르침
기금
##근로
어떨까
KBS
중앙일보
##승리
아니니
교장
있잖아요
자유당
제휴
하루하루
원주
지붕
바꾸는
la
가죽
퍼져
자유민주주
아들은
지냈
9000
##규정
하지요
힘드
who
대마
달래
동선
af
##태우
##장군
연준
하향
야권
9명
다물
동서
안방
요약
##수업
선명
교훈
##한국당
목록
받으면서
고창
아아
재주
공통점
하였습니다
그딴
두드러
##개입
##ey
자아냈다
다툼
하구
내역
재해
오래전
줄어든
섹스
조센
##ies
5000원
처먹
북으로
왔는데
모의
만들지
##공제
소폭
별로는
차세대
htt
글쓰
느껴졌다
죽으면
밴드
내며
##네ㅋㅋ
저쪽
매월
위성
1천
안건
합성
그렇죠
##르다
심어
고독
cn
퍼포
모든게
자유민주주의
어처
플라스틱
인정부
패널
천사
펼쳤다
잣대
##인권
이해하기
놓인
데서
연료
광명
이해관계
쉬고
해지고
##사관
##잔아
##모르
골든
꾸며
니들도
엑스
new
##서리
##ans
않겠다
고유정
다룬
추잡
맞았다
한순간
모르냐
노리
##미널
돌아오는
면서도
##엔터테인먼트
부풀
이런걸
##사퇴
##교체
미련
구독
골드
걸친
##타점
쌓여
만나면
##영향
알파
자영업
##리라고
지금껏
##ial
##리포
않았는데
넥센
이송
외식
나누고
##북도
에게만
되돌
##하게도
드러난
느끼지
지면
##led
될수
##일리
교인
아부
파헤
##ra
##농협
서버
##어린
깨달았다
es
not
비참
했잖아
살인자
여전
##받은
쉽다
좋겠습니다
상상력
해보세요
부근
안나오
##일베
맞춘
원료
어딨
##시키는
수확
역설
심심
##모양
마스터
발음
인듯
적금
거실
들렸다
개장
##운다
##1억원
정수기
처단
철강
##기보다는
열매
##였고
##단장
##고사
떠나는
신흥
했죠
부는
이목
##만도
##ww
주무
##공격
탐구
##으라
##할까
올라가
##나지
감축
##했지
##pt
SNS
##경찰청
무서워서
하오
##투자증
이구만
알아라
원조
묻자
생선
##노스
고조
##주얼
##스타일
관종
플레
000원
##쳐야
쓰다
지루
##회계
광경
출판사
##자찬
##문재
에르
퍼뜨
임진
열면
##눈물
아스
동행
증세
다시는
질질
##종교
마르크
맞죠
##렸지만
해보지
불구속
나눌
증여
이러다
모른다는
ict
만다
호의
et
##철학
알아차
대중교통
무산
왕국
맛집
거슬
##발생
클린
##푸드
뒤늦게
멀티
##이라도
모지리
되죠
언젠가는
작작
금감원
##mm
##농업
##렉스
하필
나오는데
##여론
미치지
금전
타협
산소
가나
용지
빌어
##일수
중증
들임
##아프
아비
##셨으면
주둔
1대
공범
전당
튼튼
##ook
어처구니
##억달러
상용
##갈등
롭지
ㄹㅇ
플래
##고용
어렵고
이뤄진
하는거다
경상도
##ord
발걸음
##운서
벌어지는
는지
좋으면
##밀하게
리스트
##일정
애국자
##포럼
티켓
IMF
싸게
햇빛
어케
간판
국비
어느정도
##해져
남겼다
안양
1로
##거임
대법
도출
죽게
잃어버린
낙태
발라
다하고
##수리
주유
##평등
순진
수거
다정
회전
나라도
맘대로
악의
해임
소극
같다는
##시죠
##발언
잠정
##접종
부럽
틀딱들
##작품
사업비
8년
네는
쓸데없는
거예요
##부장관
비닐
묶어
해지는
스튜디오
3루
실태
다같이
어미
##세다
불신
지낸
초록
탄소
가즈아
##식당
걸리면
##총액
나타날
동상
좋아해서
개통
친한
무심
비단
힐링
있었어요
##제재
거래일
딱히
##회복
##방역
물어보
컨트롤
3천
가는데
외신
##한당
##연한
충북도
김해
이룰
##더러
살펴보
사전투표
강렬한
현역
공안
상원
빼돌
이산
##부정
주행
##있던
##웃음
폭락
채우
##증명
기아차
베르
프로듀
주적
잇는
꼼짝
fa
실어
대부
##최고
##았나
전락
이시국
##증상
##타자
취직
싸울
둔화
19세기
##스팅
##바뀌
되야
조민
더럽게
정례
잠실
##베이터
더더욱
동력
묻은
낡은
염두
자본주
단단히
엔터테인먼트
##기본
##취소
의상
넘이
서점
##기계
하루빨리
송파
궁금증
비호
예상치
소망
표본
고리
안맞
없는지
도무지
재원
활짝
후진국
히틀러
있습니까
낫지
안동
이글
헬조선
상정
들어간다
##함과
오바마
밝혔
인사청
군민
암튼
안간
운항
충주
코트
양측
어린애
1000만원
##파악
##어머니
##타이
맞네
스러워
나라가
대원
들어야
##졌습니다
##냄새
내서
신장
4위
발간
부르고
##부리
##캠프
아닌거
관하여
시야
##ung
가리지
이면서
세균
엘지
한잔
적합한
바리
있겠는가
##ack
2004년
##우드
##진단
##아주
속성
당내
##묘한
적당한
##기나
않았습니다
남았다
##퇴근
하진
##타민
변호인
이라크
똑똑한
바뀔
2022년
##무사
망언
##종목
편히
##9억원
##어내
규명
##분양
##연합회
공군
흘려
북핵
자칭
맞나요
질의
정복
동굴
##구속
안락
##설계
##넣고
남이
높이기
내비
자가
잡아서
지워
##꼬라지
자택
쪼개
사모펀드
민경
##간담회
발령
신곡
##to
##려니
증진
상하
포털
##라라
편향
겪은
##놓는
멘토
##지는데
##역자
##진료
밝혀라
들리
##댕이
노는
##는지를
적혀
##함을
40분
##라니
##로는
추격
높일
##학대
Re
##데기
ad
집구석
메이크
내버려
민낯
이재용
애니메이션
휩싸
모르지
탈당
바뀌면
네네
##시작
##설명
극본
먹거리
되는게
트럭
5년간
자칫
##변경
##여당
않았다고
##플레이션
추상
힘이
##하길
##목사
걷는
en
이런식으로
일이
굴러
##신분
건수
타임
##해주세요
헤아
신음
남양
부양
으켰다
하나다
구절
피자
더욱이
탈락
수작
##었으며
부산시
금요일
##변호사
내다봤다
안겨
이년
##지원센터
한대
##세끼
달한다
황당
프린
들이고
포토
##규칙
취한
감면
얻기
받아들일
대여
지으며
계란
##허가
이르러
적으로도
유투
선거운동
맺고
##둬라
전적
금품
에어컨
2tv
pl
이럴때
##매체
암살
언행
승점
돌봄
##네스
##했습니다
##타는
커녕
하인
mou
무용
##되는데
##셔츠
알려주
하는짓이
참모
조세
당했다
##발전소
1분
사막
##책감
##하려고
남는
자화자찬
물체
거북
주범
끔찍한
혼인
이뤄질
정화
일인
어쩜
광신
이어야
있기에
예컨대
애쓴다
찢어
##장면
박씨
닫고
코너
##노트
가세요
##엄마
상주
잘했다
##임대
장례식
sd
기획재정부
##반도
##프리
당기순
##퍼런스
##루스
전남도
걸러
나뉘
구린
멍멍
어플
해야함
산정
허위사실
태극기부대
치솟
##자인
모험
이서
##ourse
교차
##뉴얼
퍼포먼스
이라고는
세종시
막아야
잘못되
놀랐다
##오스
##방문
04
##아래
만나게
거점
아트
구도
싶네요
국군
##드릴게요
##인민
인하여
제임스
##공헌
들어와서
명확히
천만
먹어야
벗고
일어나지
사라질
서는
해야합니다
성희롱
협정
##전력
들러
같은거
싶다면
실효
의전
시발
없잖아
주연
반송
맞다고
##폐기
장모
잡으면
더럽고
긴장감
지속가능
일러
우대
주둥아리
##선물
##규명
폭염
장자연
용감
아니잖아
##ory
준다고
없으
유료
상당수
##na
정시
총력
막내
미친거
이러면
버는
가령
3가지
줄이
핵무기
교섭
모시
추첨
출현
달랐다
각기
매진
##리케이션
지들끼리
넉넉
상의
실업자
해대
##고객
188
침입
끝났다
거세
편법
다채
몇번
##합리
글씨
##혼자
진학
속보
##셔널
높았다
##계올림픽
노트북
문체
위해선
색상
회동
##해주고
##두리
숟가락
삼고
자유대한민국
처형
이지경
계승
찾아가는
##사스
사각
아니네
수혜
키움
##민주연합
봐서
월요일
##득점
2인
많다고
아나운서
남자친구
더는
##조트
덩어리
진전
들어선
살인마
여왕
돌아올
##로우
##쳐도
오브
테크
##지않은
##티즌
아르바이트
##인식
국감
섰다
반기
##ost
멀쩡한
구나
지저
후퇴
소집
##졌으면
위력
해피
구리
공무
여객
배부
3배
탄탄
##을거
##좋아
유세
##더스
살자
지나고
##얼굴
20세기
공조
me
2부
불쾌
##기야
##ork
패스트트랙
나서야
어째서
재물
화한
단행
##고시
소모
전술
ib
게이트
똥꼬
##여부
신하
같지도
##야당
160
고가
##계층
중산
기만
시리아
만들면
##급식
##러니
대갈
이제는
결과물
일어서
중순
윌리
예보
기원전
낭만
피어
검거
했었는데
www
항복
중복
##중대
받았고
사회복지
클라스
관리자
며느리
##보소
평택
숨기고
##전지
신인
##왔는데
극히
문닫
우편
로맨스
장인
아니냐는
벌이고
연구자
##수출
##무장
보이는데
수명
지원사업
깊숙
대세
치워
미투
교육청
넣은
아카데미
나뭇
선장
우스
##할머니
##아시아
포럼
##줘도
유상
지주
##00여
##ls
반일감정
기둥
유관
##도서관
정해진
알아보
공모전
안경
도주
반환
##인척
차명
휩쓸
##았어
##쳐먹고
집행유예
##는거임
되풀이
주름
##하면서도
들입니다
101
금수
##두면
##지오
자부심
다문화
##인원
받았던
##일자리
##게이트
비치
기꺼
창립
전과
한가요
바짝
신형
재차
4회
애매
미성년자
거꾸로
##징역
태평양
성형
학력
0시
범법
가난한
고래
종사
##못하는
##지긋
출처
##하지않
서초동
닥치고
유방
뒤로
200만
항공사
6만
##메이
연루
##거진
있어서는
러브
자비
##동구
떨어진다
해주면
바둑
자란
살아서
앞세워
바랄
새정치민주연합
##국인
에의
발길
20명
##할게
퇴진
협회
임의
참전
토나
한겨레
있으면서
##아트
욕설
줘라
##독립
분할
봤을
청장
DNA
국왕
햇살
국가대표
움직일
유래
지음
달빛
이언주
들에겐
되는것
##혜택
방위비
끊어
승차
줄일
좋아하고
대동
태워
했었
경기장
채소
포용
생활비
안그
상영
필연
집단감염
어우러
폐업
최대한
의아
거라고
마음껏
소나
뚫고
전통시장
보물
돌대가리
형님
내놓은
똑같다
허물
##읍니다
남기고
보험사
줬다
제4
안도
##위험
까는
##자국
나가겠다
막는
의사결정
있다니
##수입
엄벌
손잡고
되었으며
프라이
역겹
등기
##데타
##셨습니다
할게
아산
##파리
##이름
장착
##ast
재선
2002년
못난
재개발
50년
어느나라
박멸
보이며
테니
알렸다
갖는다
텍스트
마른
세이
경영진
##댔다
국격
잘생
개월
원금
지장
해골
웃기고
##봅시다
탈탈
gr
불쌍하다
장미
##자책
늘어나고
se
트레이
야이
청와대는
##아내
모으고
대구경북
찔러
실명
기준금리
##히면
이어갔다
나가야
한자리
진압
망상
중계
06
묻어
있단
초고
##색히
없는거
만주
의약품
선착
##장사
##디아
미용
##성이
읽기
날카로운
광우
낳은
계곡
입점
내란
##재정
더욱더
놓았다
살았다
곱게
사찰
마니
퍼트
개성공단
북조선
##지주
싸우는
인의
께서는
##사냥
가보
설명회
정보통신
##교류
##dp
악수
쫓겨
양극
영하
들이여
역임
##오프
명예훼손
문제다
위태
지갑
빠졌다
부끄러움
어머님
극대화
없나요
댄스
흉기
지켜보고
있으세요
자존감
가축
2003년
납치
##홈런
망할
여러가지
자손
플러스
소리쳤다
찌푸
##티나
심상정
xx
유진
걷고
분배
하로
4억
적법
환호
업적
타이어
##대금
폐기물
않으니
폭풍
##ance
크지
##키트
##ug
우호
##에서는
달라진
한줄
갔다가
기득권
차마
##저스
되도
뿌려
3층
있거든요
##치다
구할
지나친
고추
오스트
일련
가야지
##못하고
붙은
##ry
3주
쟁점
대조
습득
이따위
레벨
간단히
##심의
흘러나
주권
##셀러
나쁜놈
##살아
##볼게요
##하긴
##싫다
일개
##중독
사료
##ult
두둔
아니죠
##구매
함정
에피
내쉬
부천
약화
잉글
비위
거기다
타다
##께요
다가오는
들만의
우리나라도
신도시
##만장
좃국
학년
##성한
2개월
불이익
하던지
아미
오지게
넘기
열려
돌연
에셋
멈추고
올리는
묵묵히
발병
중세
##시청
장제원
지긋지긋
남궁
헬기
시공
인체
던졌다
##이노
140
보람
##치자
숙제
잔치
감고
개무시
활기
아무렇
태블릿
간신히
##비드
##전시
메이크업
급격히
상권
5회
되네요
##남도
천장
국회의장
20여
보여주기
입건
모르면
수상자
Th
세미나
화하는
다니면서
웃긴다
##오리
뭐지
바퀴벌레
하시오
마비
Course
여쭤
##키고
삭감
히트
토트
##레오
모르겠네
전수조사
몰두
##업원
##페라
없죠
꿈꾸는
권역
##유플러스
신천
좋다는
자매
알면서
컬렉션
성금
벌인
쓰게
경제학
변형
##브랜드
걸려서
이라는게
##지식
옵션
4개월
경악
플로
그쳤다
통찰
무소속
법관
베풀
신년
##다녀
우익
##대왕
질러
오락
크리
마루
녹화
반사
성찰
그렇기
현관
흉내
기성
미중
질병관리
그땐
성당
웃어
여정
##21
승용차
성함
지역감정
##선택
##보안
기다렸다
스카
##있으니
이었다고
라면서
분당
익숙한
걸렸
##일랜드
오버
천막
하십니까
##보유
구걸
우기
##막고
함유
##앉아
5대
빨라
사표
버렸
tf
##진영
##국당
인간아
##버려라
##ind
소홀
50만원
겪어
의류
불의
전하
제천
##장소
청정
##무실
맞는데
죄책감
한다며
##수요
걸렸다
찾아야
이윤
주민등록
##부부
##등등
##새키
적이라고
끝나는
간절히
레스토
어렸을
생산량
무수
보태
화하고
안했
코스프레
우월
두어
사신
여덟
지구상
죽지
##레나
이란게
축복
##톨릭
부지런
##등기
떠났
임영웅
용돈
꾼이
##려다
시작한
나치
싸우고
그리고는
교양
국면
왜이리
까다
논평
##멘트
아무말
타이밍
상기
유망
늑대
내놓고
이태
만으로는
추위
일생
예언
벤츠
전주시
후예
외쳤다
스물
완주
닮은
##상환
속한
온전히
##ction
비타민
##대학원
휴대전화
전진
허무
##마당
##eb
카톡
김원
주둥이
케이스
크림
열쇠
##복합
태어났
어렵다는
추운
높아지고
찾아온
##ical
동향
절라도
벤치
##저축
##리안
##해봐라
최고기온
이런저런
##증시
파라
않았나
그제야
두꺼
##가정
##ath
드림
사회공헌
이유다
소스
앞장서
연일
##는거고
##ave
진지하게
어지간
##거늘
제갈
걸그룹
귀한
제보
##출산
4대강
##어는
인간관계
동경
씨앗
경제성장
##미스
쉽고
대는
드레스
얻게
1억원
중국산
돌리고
뜨겁
##강화
##메디
비자
##주차장
임용
들었는데
##15
귀걸
##떨어진
한양
3시간
공세
북구
무당
##라구
지독
장난감
구청
##소수
##정비
부재
있소
그늘
흡연
대꾸
고맙습니다
안할
방송국
항해
거뒀다
보입니다
외무
마신
쓰여
커버
않을까요
대수
##체육관광
비서실장
진도
이노
이데
해킹
고민정
개수
판례
돌아와
장담
아랍
의욕
슬로
유언
내보내
보는데
##22
수차례
##부품
##13
화자
부끄럽다
설문조사
5위
따름
개구리
단편
먹는다
죽는다
##까지도
성사
##담보
##쉽게
말장난
무사히
으며
##교도
벗어날
딱딱
##유통
하시나요
비디오
바빠
거래소
교원
떼어
분량
떠오르는
알리고
얼마전
벗겨
##작가
##스로
있기를
국정감사
유난
바치
우회
##하라고
인지는
이러고
아쉬운
반려동물
광양
노답
계엄
라테스
이렇듯
##하는건
특별법
was
이왕
짧게
완공
조국이
치즈
정세
##맞은
출퇴근
부수
##니는
희미
한놈
이런기사
네티즌
뭐고
장려
1만원
미쳤다
##린다는
실컷
##특위
다시금
항소심
하하하
##수급
연락처
##받는
사위
이었을
색히
이적
##사법
선보일
담았다
박지원
##소유
최다
##내자
##베르
##콘텐츠
어렵지
복무
길러
이제부터
##오르는
라를
교정
##광주
전정
아주머니
섬세
수꼴
연세대
##세자
쏟아져
나라망
못함
재직
##넘들
시티
진중권
댓가
보좌관
없었지만
환급
##있으면
##연승
터트
왕조
아녀
억울한
보답
만물
##모델링
하원
바꿨
세계대전
로로
암시
##당시
##iew
##안군
종족
영남
풍요
부엌
님에게
해마다
사라지는
##리는데
시행령
갇혀
##놓을
##할수록
sw
반찬
##ph
##리포니아
똥개
아메리카
저사람
간호
##으려면
한당
부류
보내주
의대
전복
생기고
동결
##사전
보충
주셔서
백두
세기
잇따라
##요소
있지요
애인
트리
##여건
심리학
극심
해주시면
##플루
했겠지
다루는
박근혜때
##알아
트레
생각나
에게로
기꺼이
냄비
밤새
있다며
였으면
리듬
재빨리
차림
같기도
##원코스
##랗게
관련자
옮김
##기일
못하도록
##수칙
도둑놈
화나
혹시나
관할
블랙리스트
##pp
##사단
댓글조작
생색
공권력
대행
견딜
횟수
급한
##과제
##ond
일어나고
작고
되네
우방
전범
방학
움켜
맞나
빌딩
##있다고
경지
합당
그정도
##oh
개표
##코패스
관중
식탁
가에게
입대
장병
##수행
186
일제시대
촛불집회
기침
용납
##전문가
강수
이모양
##지던
정치판
카르
lg유플러스
저런게
차장
대치
옳고
이보다
주역
쩝쩝이
##창업
경과
귀엽
잡힌
##티드
이래도
신생
##있었다
##부산
##었음
타입
도장
k리그
코로
##다는것
독감
악기
택시기사
피눈물
보내야
1부
bo
##ri
오줌
앞날
남조선
예비후보
3인
반지
##안고
죄값
##반응
20만
우상
읽은
##리라는
##났네
##폭망
학업
친문
##ert
청주시
##봤는데
##렉시트
당이
##징금
##후군
나가면
이쁘
##라이트
만인
아니기
하였으나
고난
##커스
이런건
##영업
참여자
07
돕기
실전
산출
##와이
유능
견찰
형평
##체크
대성
하나라도
웃는다
짙은
일명
바로잡
광범위
헌법재판소
잃지
이꼴
돌이
##주제
아무나
fta
치면
우체
있었으면
몸매
안드
##노릇
##인건
내리는
공정위
공지영
##투자증권
##ome
금융기관
##저자
##청년
##창출
근심
##받았다
존재감
하고있네
접목
게시판
my
아시아나
민경욱
찍는
좋아한다
학부
##겟다
기저
벗어난
##대리
가증
##역량
우덜
##버드
##건만
금융감독
규탄
##이후
간격
ic
##랬다
불평등
사는데
커서
##극장
##통장
사이즈
으로서는
##100
리드
니놈
이간
##혹한
연다
빛나는
통행
할리
와라
경찰청
호감
빈곤
좋지만
그리스도
am
소릴
9개
과반
손길
##보면서
북한군
다가오
나름대로
2세
비방
하나는
상담원
밀어붙
##주교
##지않고
뻔히
##그레
신나
풀고
##위안
이법
좀처럼
단절
##와는
##원칙
187
에대한
김현
탐욕
어쩐지
진정성
윌리엄
##데이트
##균형
같은데요
짜증나
라인업
한류
##아비
##볶이
항구
당연한거
##듯한
알아보고
일회
1순위
동영
검정
많으면
종로구
관광지
유튜버
##맥주
선거구
달콤한
면세점
안성
없었습니다
얘네
잘도
40년
귀여운
남구
하냐고
캘리포니아
두뇌
층이
마르크스
##민당
##지도않
6회
죽어야
아니한
하는사람
그러기
남용
또다른
한눈
으킬
품격
고종
훌쩍
##강간
별거
관대
꼬박
##텐데
이어져
벌떡
유물
들리는
거둔
15분
보행
##호흡
한국은행
유대인
처한
##적한
##정의
업그
놀랐
삼각
당당하게
엄정
##팡이
그러시면
서두
5만원
##있습니다
싶었던
책정
##졌어요
들기
##회원
계로
넣었다
오일
키로
권유
씁쓸
우는
##예방
뽑는
영등
한거지
니체
##요구
요란
##설비
매치
문건
편가
가르치는
##신경
친정
##몬드
수분
그리워
##대도
서른
##셨던
보이콧
복용
않는가
부착
무기징역
그나저
모름
않는데
울려
들려왔다
모시고
유성
화력
깨어나
수필
버텨
오피스텔
해변
넘어가는
숨진
여우
##되어
sc
소방관
열릴
하천
하는건지
##증자
##서류
##버려야
안아
라이트
솟아
슬쩍
그렇구나
아닥
잘못이
적고
더민주
##우파
##협의
이뤄졌다
착공
문재앙이
같지만
##ef
금강산
##물산
베를
##다니엘
여서
체납
##공직자
##오게
우리은행
##브라
알겠다
정교
아시안
같은것
오너
인천공항
##지길
52시간
공존
엘리베이터
이었어요
##야만
##삼성
돌아서
폐간
불빛
도는
년간
##경우
##숭아
드리고
있니
분담
무작정
불명
인씨
##대우
##딩스
OOO아
##스토어
좋아하지
데이터
##수술
단말
##사정
천황
##다나
피우
추종자
2대
생명체
선량
깨달음
시의회
스무
##와도
되었지만
좌석
다른데
재난지원금
집어넣
지저분
표지
##했네
우두
관람객
조센징
소파
위헌
넷플
싸가지
##영화제
가산
기숙
##진당
##하이닉스
장기간
더했다
우롱
카운
대구시
볼수
한표
다할
종업원
카드사
단원
일하는
트집
법제
하였으며
조약
유익
소명
통일부
아래로
없이는
##코올
만들어낸
신약
다행이
인자
흔들어
##꼬리
달라질
그자리
나눴
셀트리
헌재
##조각
변태
악용
cl
선거때
나비
이빨
##ti
브렉시트
낸다
어짜
##타리
안먹
##연패
여럿
잘해서
그러던
알았어
##매장
옮기
달인
싫어요
치밀
##폴리오
관심사
김구
광산
##언스
최저기온
망쳐
PC
로고
중기
인정권
보은
합작
회식
##었으나
기색
없었을
Ar
깨닫게
순차
지친
키울
##대지
##이기도
##비디오
이윽
##나니
즐거웠
밖의
번개
##잔치
대인
의석
스프
클래스
간식
##시게
양호
꾸미
치사
##티비
미술관
토크
ss
경남도
속초
##슈타인
정씨
##라며
군부
솔직하게
잘했다고
급하게
동아리
초상
평상
느껴진다
론을
##하기는
이정권
집사
##린거
##자재
민주화운동
경신
##모로
박영선
##스크림
성장세
도와주는
돌아간다
모릅니다
산업통상
꼬집
게스트
##르면서
자정
추출
않았다면
정신차리
와이프
##대상자
##들한테
할텐
과자
더듬어
이렇게까지
로의
##군데
없는게
좋음
돌아갔다
소각
리모델링
##노동자
영수
##가없
##elf
지키지
##동조합
입소
통신사
다급
사는게
찍을
아인
한유
간다고
배움
페스티벌
##의약품
##업종
정읍
##았으니
800
##렁이
각별
개소
하락세
기념식
##제공
설령
##ary
양념
##현대
던진
치안
비아
##매일
3사
쓸어
##히게
사십
다른사람
세수
않은데
음반
1사
##왔고
다녀오
했어야지
터질
업그레이드
세제
인문
지체
아이콘
쾌락
없애라
상금
##소드
향수
공정거래
갖지
수당
조현
2013
명백한
소나무
가담
없으면서
나팔
5도
싸지
복사
표출
1박
##병대
안하면
역학조사
교묘
당기순이익
쓰냐
필터
##사카
불통
머물러
전송
##진보
제자리
고마운
방구석
##포기
이거든
콜센터
레스토랑
##하고자
##산군
ph
재검
지원자
차리고
반문
다중
뒤쪽
말기
사치
일본여행
##임자
장교
##int
고치
근혜
##재기
바꿔야
##목표
있는데요
##아니냐
그립
##주셔서
모아서
만들어라
##리냐
##잖어
이르렀다
안된다고
관상
애미
쓸쓸
아베가
수위
##콜릿
##다는건
미션
부스
##니어
봅시다
비비
케어
기한
사부
이렇다
맘충
시가총액
온전
올라가는
답게
한국사람
대하는
권과
평일
들어가고
권도
키운
iot
말아라
실린
##유기
한없이
안쓰
타고난
높이는
총기
있어야지
프로야구
개체
똘마니
두지
정계
하마
##요건
집필
넷플릭스
모르니
열등감
괜찮다
매물
몇백
받았는데
연쇄
##았냐
##께서
극도
스페셜
##건물
##이네요
지나간
예뻐
##스틱
상시
순매수
였다고
인천시
가르치
메디
한은
해주신
해야하는
세븐
메리
##꺼야
혈안
##태프
함으로
##레이크
회상
판타
모른다고
터지
온국민
##취업
도우
인접
사직
장래
주부
이어가고
갔는데
못하다
원가
반품
애도
전도
이국
##거워
내심
어쩌구
스킨
김진태
산업통상자원
내각
좋네요
도시재생
변하지
공화국
쳐들어
펼치고
##지점
깨진
총알
농림
기레기야
끝장
##지부
상담사
부정부
한중
##35
도배
초조
이없
마이클
만들려고
수원시
흘리며
50분
안사
노골
아이러니
##서스
화산
해졌다
경사
양파
이은
해야죠
강력히
예로
방송사
아닐까요
##16
가져야
this
형량
##서치
##갈아
밀집
보아야
2심
의료기관
고용노동
치며
형법
서울중앙지검
궁금한
김재
선한
상습
시시
우리집
공방
##버거
가설
열받
##서로
복도
노르
근절
##하다가
##영이
달라는
단군
이색
동급
별명
sk하이닉스
구형
아끼지
1주일
##지라
총수
##벨트
시키자
나쁨
분자
왔던
##달창
갔던
##경험
징수
보로
절도
imf
되었으면
##14
보려고
이루어지는
잘사
우리말
많음
방한
3조
##드백
공백
여는
##ational
자립
경영자
##ro
이른다
악성
극혐
12명
에가서
수석대변인
비결
모방
편파
프로세스
##붙어
이야기다
될듯
2000만원
못생
농부
후원금
짓밟
##아동
맞냐
공제
부끄러워
업데이트
보강
다다
본부
학위
몰라요
##마나
으이
있겠냐
견인
부러워
실례
사세요
파주
강제징
용량
있었는지
직권남용
충고
##모두
토로
CE
됐으면
비어
강다니엘
바꾸어
찌그러
실형
일하고
침투
보내라
벌어졌다
##는거죠
놀랄
따지면
꼽았다
이었으나
퇴원
있었다면
vr
아마추어
도리어
알코올
아이스크림
나타나고
에효
훔쳐
1주
문화체육관광
잉글랜드
빨고
극치
로워
##부동산
않습니까
2021
그러면은
##보다도
다큐
고로
빠지는
퍼주
해법
분수
2년간
##시네
중국어
7만
##버린다
다가왔다
에코
사회생활
버티고
IT
구하기
유령
움직이지
권으로
##밸리
되었는지
##신교
##누스
대피
##ㅈㄹ
이윽고
길고
대법관
모독
썩을
전대
정하고
스쿨
고려대
##자신
##uc
금세
정년
##류장
있었어
똘똘
돕고
##처장
추산
##왜란
3학년
##lic
사격
아이스
이넘
악플러
하단
대입
##dc
벗어나지
선착순
시술
침착
발주
유교
##앨범
다투
맛있게
하셨어요
붙잡고
몸통
미흡
늘리
나타내고
영문
선원
1년간
가세
군데
##르몬
##17
##테이션
놀이터
싶고
700
앞잡이
##랭이
바라고
##계좌
아세
형벌
어용
트랙
호위
##겠구만
##차고
제1항
해야되
이드
이백
쓰면서
그런말
부끄러운줄
up
의사소통
##그냥
##박람회
불참
인문학
론칭
입자
독려
다운로드
치켜
옮겼다
##셨는데
문죄앙
마켓
모든걸
걷기
170
##전형
112
고함
살릴
이르면
바른정당
##표준
##셨나
들일
영화관
##인생
##여대
이나마
되므로
##되면
해주시
어쩌라고
늘어났다
2단계
웃기는
우산
##보여
익산
모기
유머
##대책본부
그러고는
결함
혼합
못하지
원작
참석자
개관
통하는
##친일
스코
현수
링크
서사
##유치원
##파일
번영
적성
5배
##👍👍
##구마
토해
만만치
2001년
똑같네
쳐다보았다
##금속
##센티브
##아침
유학생
물어뜯
쟁이
포르투
2030
라다
하더라고요
내장
퇴임
부드럽게
기이
해보니
저승
지역주민
휴게
마한
트럼프는
##비어
이라고도
##경영자
1학년
##설치
30명
##oll
궁금해
##단속
##타르
다죽
헝가리
##려요
할지라도
비서관
좋아하시
정조
11명
##해야한다
##노선
명확하게
지내고
##도다
입가
문천지
한걸레
늘어나는
되잖아
##판단
전년대비
즐기고
피터
##포스
보증금
깃발
동양대
하차
##ime
어짜피
이크
##근성
대형마트
한국경제
##베리
##미국
사제
나오네
##eg
##자책점
교역
수목
요동
교육과정
개개인
올라갈
##관리위원회
3d
##닫고
섹시
떴다
##좃당
많으니
○○
부칸
심해
3점
한말
##내면
OOO들아
수치다
올리지
##orm
탈북자
동무
##있어서
나주
두개
조조
분이
애플리케이션
##탄소
미뤄
드래곤
##보라
주작
마실
##하지도
gdp
##위치
위촉
##벅스
맺은
하남
관습
서울중앙지법
무섭게
셀트리온
500만원
제네
503
묻는다
##성군
##베이션
바르게
203
내륙
##널리스트
김상
않았기
베를린
결성
2학년
연내
##ite
##olog
##무니
가냐
징글
감빵
##오던
##절한
##ove
##산지
만족도
않으면서
헌금
##피탈
출고
커질
##떨어
조선인
##는걸
##놔라
10년간
성지
안믿
쳐맞
##드니
소진
개발자
세습
남다른
박쥐
의정부
잃었다
샤워
부정부패
꿇고
익명
멜로
채취
##ml
마녀사냥
요원
##았어요
##종원
##m로
발동
훠훠
##식사
##아니다
있던데
거라
유신
##말자
##난리
##올랐다
다하는
##졌어
가늠
멀어
##신용
##완전
하고요
여가부
중화
##이동
##홀딩스
놓치지
였어
가에
오페라
끼워
어설
자는
초콜릿
치료비
안한
##겨운
화와
##학과
동등
경찰서
다채로운
분포
##이도
보호자
어땠
거창
알바들
낮춰
사야
쿠데타
무례
문화예술
지대
당사
끼리끼리
##군사
##했나
아니며
구하는
나발
매개
크레
넘어갈
무얼
##시계
프라
##대해
##oon
배분
창업자
개독
선의
##타수
바이든
다우
여보세요
호조
낙찰
##조심
통째
포트폴리오
5번
원시
##시급
노비
##까리
안들
차이나
후자
싫고
막걸리
섬유
하듯이
바뀌었다
과다
최고치
##더미
##커피
안부
예선
##지않게
##롭고
베네수엘라
양해
대전시
아니오
출력
실려
죽어서
한녀
자처
반갑습니다
한식
의리
로또
그사람
##통위
메이저리그
##드만
제5
엘리트
가득한
비춰
동포
##티아
비트코인
될거
do
사라져야
안되고
서식
재활용
액수
흰색
이영
##잖은
들어요
##시킨
##순이
베댓
책임지고
문어벙
공손
from
##밴드
##대병원
빠질
싸고
가던
잠잠
동맹국
면모
김정숙
##대며
##소스
사회주의자
하셨습니다
잠재력
숨기
플랜
##공주
7억
청중
##지급
티셔츠
우체국
늘리고
개검
에드
하든지
##했어
범주
제3자
부르짖
이준
대담
##바퀴
##교육감
마땅히
기질
셔츠
pp
아테
노숙
맞벌
if
있듯이
고양이
질렀다
달했다
##가니
안전관리
홍수
그랜드
돌아가신
신분증
기재부
뜬금
이토록
##지금
가려고
수감
절약
##들을
선수단
쌓인
쓰러져
체중
관장
조속히
보이지만
가면서
##국방
수양
##50원
탐색
뚜렷한
응용
625
1점
획기
##요원
드렸
지칭
농어
벌고
잡아야
##하고는
발부
이방
또래
내려놓
득표
알렉산
나오기
보시면
집중력
임대주택
굳게
##31
내려와라
규범
훈훈
직관
셀프
##포장
살다가
포상
##지로
##인구
눈가
너무도
##ous
잠자리
##페이스
넘었다
뻗어
톡톡
##ace
닮아
층을
주워
체질
뮤직비디오
##88
담임
종결
못했을
인사청문회
교감
##낭비
주당
못믿
##만하면
조율
통로
만성
보리
인센티브
##ian
##갔고
클로
##버리지
##버리면
##ach
기껏
안다고
##만들
##ens
휴일
모형
행정안전
있는지를
알림
제왕
잘할
오세
##다는걸
중얼거렸다
성남시
##지기도
##산부
경제정책
사양
손쉽게
##ㆍㆍ
죽을때
드러나는
먹어도
아니더라도
떨어지면
먹었
통지
이런일
아껴
민망
고3
까지다
키워드
막장
봉투
자취
대우조선
구로
미미
실물
받아들이는
담담
식약
총살
폭스
간혹
정수
다양성
gm
권장
태권
구사
미얀
##은이
사천
파생
거느
순이익
##대신
치마
##하였
임진왜란
공감대
저서
분해
않겠다는
쳐먹고
##소프트
북측
씩이나
누르
ㅁㅊ
내공
##수수료
출구
헤매
##들의
싸그리
##퓰리즘
바뀌고
특강
당당히
##문자
##블리
기자간담회
##가입
했다며
밝히는
이듬
##법안
했구나
한발
but
##입고
당뇨
##완화
##서구
ec
공로
도데
전선
이승만
man
단서
불안정
Tr
ms
세자
지상파
전까지
##다임
##될것
국가안보
쓰나
내려놓고
이완용
##테고
##아님
##다이
##토스
깨끗하게
백작
1990년대
1000명
알아요
##랍시고
모든것
kbo리그
공표
다듬
##십자
있으신가요
해선
멈추지
##키스탄
농지
금융위기
적이라는
##공작
0으로
##더기
임종석
그러게요
미화
나쁘지
##부진
영세
##파탄
주입
블룸
구한
##효율
책임질
유예
까진
방영
치부
서초구
모자라
빌미
좋아할
발판
거덜
뛰는
스타벅스
전투기
보름
눈부
응급실
담겼다
기업인
대본
업소
##투명
공단
모터
맞음
##바위
정신승리
자각
지름
편한
##틀딱
보유세
굴복
##인정
1980년대
있었나
일간
one
포위
##ax
가뭄
발열
더위
한기
8만
보다가
그러고도
첫번
##부러
##마디
##통계
웃겨
돌아가고
스며
펼칠
##으리라
다를게
12개
삼성물산
방울
확고
까지나
전부터
시간대
사도
##정상회담
소크
없었는데
##자락
못하니
##미수
입었다
신속히
마귀
착취
##지네
##웠고
수지
제명
텍사스
하청
100억
금융위
때리고
샀다
빠뜨
들인가
벌써부터
야만
몰수
##장구
마나
수두
농구
##교실
청취
였을
폴리
##테면
수레
당대
이세요
뒤덮
멋대로
일선
일까요
적었다
##았지
도끼
낙하
히어로
있기는
호평
파장
들통
모호
##역시
자리매
궁리
##프라이
살길
##65
설득력
끊고
이끌었다
애국심
저질렀
일어나서
옥수수
##연설
찾아내
4시간
먹고사
폭넓
##미세
3종
##물며
200만원
##된다고
##창조
분단
파격
아까운
##려구
##비서관
깨고
절벽
에이스
웨이
체류
손수
아야
바뀌는
낮게
크루즈
쓰이는
상점
팀원
강물
보험금
##간다고
bl
웃을
돌아가기
놀아나
울산시
에미
##페미
삼촌
##도로
시설물
보나
##io
발레
수송
##위생
롭다
벼락
##관념
하였는데
우크
견뎌
아팠
화될
뿐인데
브로
대법원장
##박사
일도
뭐가
##애비
갔을
스쳐
원형
##나온
자율주행
곧장
꼽힌다
중장기
많지만
지문
##ㄷㄷ
로된
##어서는
올라온
##했다는
군림
##스럽
움직여
미얀마
않았으면
위해서라도
주유소
특집
정의연
강구
대명
금융당국
낙관
##질랜드
모드
용이
올해부터
##드려요
인양
##진다는
##두는
피드백
타율
수직
##0만
없음을
떠드는
할꺼
가봐야
장벽
2분
##금융투자
예산안
응답자
앱을
##mw
이거나
들과는
예방접종
무너뜨
들부터
기증
##보려고
보이기
전경
##one
사육
주민센터
행정처분
만명
지오
가져온
이끈
제게
##복무
못한다는
일괄
녹아
에게나
열악
협력사
심신
외로움
천년
속삭
자백
안남
##마케팅
뿐인
간단하게
스님
왕실
발탁
취할
300만원
날리
예매
고심
서운
환수
홈쇼핑
##네트워크
오른다
기쁜
어조
품위
복지부
않느냐
##거래일
공화당
취하고
무안
AI
##cl
있는건
all
5개월
##연장
도데체
동아시아
체인
워크숍
드나
웃으면서
##청소년
##ish
아동학대
검출
남들
노자
짖어
##시리즈
##봐서
원한
삼척
포함해
##슬라
노동조합
##프레임
터치
##요인
##주체
##노자
멀리서
행성
년놈
유투브
빨개
##댄다
정치검찰
신랑
##듣고
들었을
co
##살인
일년
##제기
근간
본다면
ab
하기가
##치소
써도
불출
금리인상
이와중
한껏
제조업체
반항
살았던
주춤
##주며
##렌지
고위공직자
되시
##불리
메모리
나폴
동방
속이
있었으며
3000만원
분실
##일수록
지형
##기보다
고용노동부
CEO
##sh
오사카
##식품부
눈깔
출자
망치고
벌였다
한나라당
아오
마법사
연평
일등
젖어
믿을수
석사
용의자
출세
맹세
##주간
병실
##무새
가리키
자작
##보인다
안티
제동
##마일
태백
책임지
유재석
막강
유난히
반해
##분들
가톨릭
단골
##하니까
안지
##하시고
송금
저분
##99
발산
현기
만들었
빠리
에프
대금
학기
##면피
있는데도
두려운
껍질
##성화
이었어
고졸
##지검
있을때
메가
미스
평온
유선
탁자
군자
작살
일찍이
3단계
유럽연합
이체
##찮은
30만원
케이크
상하이
##셨네
중국발
인플레이션
타락
무관심
펑펑
되는가
이듬해
포로
으키고
mb
잊을
##투수
드린
##고속도
모셔
##콜라
천명
정신병원
1000원
힘든데
몇개
한두번
##겟지
하던가
빠르고
##있을
##nt
다이아
185
11개
섞인
신자
우뚝
생물학
이원
웃기네
전산
맞은편
##닷컴
동전
##핑크
기숙사
포르투갈
몽둥이
절제
##하여야
흔한
못했고
근접
백종원
약탈
##보조
보던
민사
커졌다
뉴딜
않던
자이
##간다는
##맙시다
덜어
약정
자수
##혈세
시카
쳐서
##유출
망하는
사학
위해서다
##품질
복제
수월
2012
어렵다고
##격차
##ock
일본어
이땅
입양
##도전
##지않아
즈음
사임
현대자동차
##어버리고
상호작용
신문사
##판정
받아들이지
메달
##겠음
##함께
##필드
어느덧
아프다
했듯이
와야
디스플레이
버려야
소액
눈감
재촉
##외선
당선인
전인
Al
##물량
화의
뭉가
이런말
생태계
실재
다니며
각성
여행자
##콘서트
생겨서
올리면
엄지
절로
##타이어
##gb
흘러내
불과한
최하
할게요
##렸네
##으라는
방문객
영리
까불
복종
이말
매트
반격
##티스
나날
##축산
저하
개똥
led
##테르
어버
안전사고
느끼며
주어야
염치
레알
자한당이
9년
하는건데
만큼은
일조
70년
스티브
만나볼
줄이기
제6
##두지
말미
방대
빼면
저럴
##니스트
we
1루
고액
받던
생전
##ai
만하고
권한대행
앞당
의논
건넸
싫다고
원심
감사원
깨닫고
소득주도성장
챙기고
##정도면
오게
지쳐
##도우
하룻
왜냐면
뉴질랜드
하니깐
##했어요
그려졌다
자꾸만
도래
시너지
도와줄
일어난다
수동
수산물
그레
대의
버리지
말고는
사촌
##man
##야지요
나가지
회의실
금융시장
동거
인으로
are
##xx
텐트
이룩
##오전
통영
##할래
나스
멸종
500만
볼때
회생
##분이
들에서
헷갈
안되면
id
횡단
열흘
에피소드
먹어서
##평생
##확대
이어갈
##피안타
31번
문화체육관광부
회색
돌아왔
##졌으며
동그
로버트
여기고
잘만
##체육관
팍팍
재킷
##김없이
드립
싶네
아담
##경쟁력
되지는
공기청
타이틀곡
그나저나
Un
전전
화기
경쟁자
평균자책점
180석
##신도시
가루
객실
평안
이견
못하냐
20만원
##경기장
온실
##융합
독재정권
악랄
밝혀졌다
카카오톡
들린다
안보고
비추
해주지
불리한
내재
절정
참담
음식물
나왔는데
MBC
박람회
있었으나
천박
풀려
블라
조국딸
보낸다
##민주화
3자
노래방
금융감독원
법사
##상관
오래된
막판
폴란드
8회
삼천
##작물
가로막
##인데요
시군
기가막
적화통일
오스트리아
깜방
도교육청
돈주고
눈썹
##내역
이번주
굴욕
##진구
##였는데
르노
##제조
저작권
대구시장
한가지
구슬
정점
기다릴
his
차차
##킬로미터
먹으면서
##가슴
패러다임
수염
##소나
동대문
열망
진상규명
시흥
학계
전북도
국세청
하고싶은
꾼들이
로움
미팅
##아들
더니
7회
가니
말레
숭배
궤변
공문
해진다
공동주택
솜씨
냉동
스캔
여보
너는
잘하면
장차
##성비
30여
다녀온
득실
했어도
##확률
무의미
6억
##무슨
드문
사법개혁
들부들
권익
가리고
##이런
한미동맹
속국
##싶어
내세워
팽팽
30만
부탁드리겠습니다
기후변화
해내
때때
2종
##드러
정준
공론
여동생
굳건
##우니
##일때
나오게
에릭
##연기
하기만
##듭니다
호칭
꾸준한
저감
4인
##정원
트라우
푸드
동창
미모
두었다
빨래
2010
감격
알뜰
수평
##궐선거
불과했다
뿐이었다
과거사
부려
막혀
##어디
위하는
팔아서
나오냐
명명
##으니까요
민좃당
보드
##표시
kr
##부림
보고는
스케줄
운이
주된
##홈쇼핑
##하지마라
대왕
봐주
싸늘
넘어선
##누구
간직
##리학
br
보냐
##감각
##orea
못했지만
Con
##줄기
야비
ed
##오후
죽여야
들중
묻지
인디
특례
##지노
팔자
아하
중앙은행
직선
김기
알릴
진천
1997년
빠지게
구속수사
붙인
아베는
##마토
세계관
태자
##대교
한곳
교직원
여학생
오죽하면
##쳤고
맹목
않더라도
내라
##af
중요하게
##플렉스
녹취
##래스
등재
바가지
생략
현대중공업
퍼부
##빌딩
가지게
비슷하게
하버드
예능프로그램
상표
감싸고
조국수호
쳐다보
만료
##버는
##집어
12년
184
에고
한단
##원인
그러면서도
데려다
##이면서
하셔
정권교체
부들
은하
정문
파이팅
대통령령
원치
이런사람
답답한
##지시
향하는
10배
50만
불화
까마
왔어요
동요
급급
속내
에라
참지
##그림
##군다나
공산국가
1999년
##만족
제조사
out
되겠지
쌍둥이
##mer
깔려
설리
##징글
15명
어둡
맞추어
망명
Com
오시
응모
천주교
잘해라
##박살
건보
##넘이
무너져
kt는
##테이너
힘써
포퓰리즘
조문
외화
##구름
이냐고
우세
##34
사운드
필름
할부
##오르
일본제품
건설사
바른말
떠나라
퍼주고
1단계
황씨
##영역
조립
넘을
##ound
후려
생겼네
하는건가
브라운
깔아
장마
기미
##여름
내놨다
실습
잔소리
전차
현혹
경제활동
능동
생년
내편
예견
수두룩
##로도
스터디
조공
받아들이고
섞여
임산부
종말
할지도
종북좌파
인질
낯설
기습
##논문
본토
털고
##실패
까발
##하구나
왕비
복장
##85
철면피
도피
##강사
##확산
본선
센서
휘발
스피커
유무
##그리고
가라고
망한다
하기를
로다
포지
비슷하다
가리키는
들어오면
모르겠어요
못합니다
무신
드러내는
달리기
실로
개신교
저술
정중
하고있다
다각
이었다는
##ign
##올린
##양군
브루
오천
장단
##0억원
##소개
강대국
흐르고
##이여
기밀
50명
끈다
##물어
2만원
한가운데
##공시
푸틴
나게
하소
딸기
야동
만행
떠는
은은
바꿔라
##주길
##생태
안일
왕위
##인걸
비스
캐스팅
임차인
신원
총회
##지랄
세비
##쳤던
보상금
lg화학
##투사
닥터
다고
##히기
차갑
##냅니다
엔지니
##하나요
외국어
##도어
아니니까
난감
든요
산지
생중
##바구니
더불어공산당
불러서
오마이
##ick
##reat
##장애인
갑시다
아니란
말도안
그만좀
검은색
꼼꼼히
1개월
감금
김원봉
깔고
개탄
따지고
수년
##무대
##시네요
손톱
공헌
복면
강자
왔습니다
되어도
승자
마마
빤스
밟아
머가리
명확한
결말
##조약
##증거
##궁창
스태프
##기정
던지고
##시원
운반
질본
친밀
##빌리티
기어나
##박혀
길어
장갑
성역
방역당국
##ms
그런것
부장검사
예술가
방패
들때문
필사
각지
우병
이었으면
말한
##ern
##시행
##자문
우선순위
처참
피난
##ition
닦아
연체
배신자
잠자
##문점
뿌듯
타선
희대
1500
박혀
한유총
로이
이안
움직이고
##고등학교
##과세
정해져
수량
이었기
OOO이
발전소
분별
악취
시그
##배당
##비행
뚜껑
per
##줘야지
집주인
##위병
##che
교민
글고
소란
걸림
더럽다
모르면서
안락사
전체회의
넣는
베이스
옥상
##설명회
전방
후안
2사
민선
때려잡
도울
서열
열일
자원봉사
플라톤
너그
되실
소인
배워야
마는
못가
뒤져
권력자
수없이
세입자
해야된다
육박
해치
옮긴이
살리기
##버스터
라틴
옆집
열광
op
##키아
얻지
속아
충당
4천
할매
보아도
로켓
이종
##매수
찾아와
떠나고
##그렇게
##과는
##졌기
사탕
##거릴
들뿐
유나
적힌
가이드라인
맹자
아바
##리스토
슈팅
##나봐
선동당
사실관계
##하십니다
백년
국론
이장
죽이는
남원
##던데요
오른손
이뤄지지
썩어빠진
안색
정선
산업통상자원부
숙청
크로
##지지자
거침
##지라도
털어놨다
저렴한
상고
김정은이
창당
한마리
블룸버그
경청
고고
지우
누리고
다르고
신이
양질
크로스
해양수산
##거린다
들어서는
해보는
원본
변한
제의
모음
더러워
먹으러
##권리
어려서
총체
안한다
보훈
무궁
환기
##비자
##키나
##번방
먼저다
승무원
접시
쉬지
해낼
정자
어울리지
##가는구나
상임위
무늬
과서
배임
##au
이란걸
더군다나
한탄
막지
불황
헨리
등극
지킨
##도미사일
신작
알아볼
신재
##상대
에서다
심히
폭격
##자산운용
던지는
무너지
통역
없어야
##하지는
질주
##비치
왼손
도요
박힌
번거
비공
##령부
덩치
##0명
은근히
청사
##소시
광대
무고
없을까
만찬
##나갔다
신기술
좋냐
하거든요
하다하다
놀라게
외곽
위인
서문
있더라도
파손
나열
밝힐
다음주
세끼
##하장
보라고
오케
기피
##준거
##유입
##바꾸
친근
말리
##골프
대깨문이
##텍스
나와야
엉터리
직시
지냈다
속하는
사교육
불태
윤지오
개조
되려면
탱크
되셨
##넘어
2011
대국
아로
##da
한인
인신
1000억원
Fr
발로
##폐지
한다는게
자슥
##erv
가꾸
하더만
##치네
##😱😱
4조
잃게
보이면
이석
##도르
정부탓
뒷통수
쓰래기
##자면
아모
65세
Sh
대강
##개편
넘긴
##무능
스타일링
론은
시일
##정리
##ink
비싸게
못배
독창
바다의
단숨
증폭
하지마세요
대사관
##지다
##중앙회
뛰고
##겹살
생년월
80년대
##감치
리버
나와도
버틸
싶어도
작게
샌드
##파티
낙선
##조절
외침
해가지고
1의
든든한
저런거
아휴
유착
한푼
##내라
Br
해답
##보네요
인맥
하얗
좋아하는데
장외
##렉트
yg
##그만
앉혀
전념
##EC
맡기
안무
##랑이
##남부
같은소리
시키며
박통
만년
말려
머금
순조
회원국
스티븐
##가는게
수사기관
한우
통산
막을
이르렀
아무도
불어넣
이례
줄이는
이간질
끝내고
102
외상
비평
야근
최저시급
##매출
까봐
지날
한민족
예기
붙이고
so
골고
피하기
생기지
척결
검찰수사
판문점
여름철
강북
진흥
##ree
##일듯
이었다면
유상증자
꺼냈다
꼬마
줘도
##오니
비밀번호
##국수
##윤리
용병
##여도
시장경제
1998년
번갈아
##조기
##다시피
터널
했을때
suv
##면서요
실증
올라서
걸어서
층의
##마냥
##ood
태연
경제부
요금제
장자
원화
현충
##우주
있었지
나서고
오렌지
존엄
##77
공소장
일만
##줄알
김무
양승
아니겠지
##ank
있었기에
아일랜드
혈압
##팩트
생각안
에라도
흘렀다
http
##소장
끝판
키즈
##now
밝혀진
좋겠네
300만
옳다고
있는거지
노망
마포구
배민
아군
국외
모였
역동
한다는데
어떤지
설탕
날라
깨끗이
저러고
했는데도
트라우마
##동강
들으며
하시기
##나나
없애야
조구
환원
##어치
##아먹는
저질러
하에서
높을
추한
빨간색
할수록
공영방송
꼴보기
윤씨
세울
##르타
재계
##tern
##ublic
퇴사
한옥
알아야지
밝혀야
올려서
못한다고
두들
##크리트
이고요
아작
들면서
라스
##시킬
##ake
라냐
비상대책
되었으니
보스
납입
묘한
성관계
코메디
어찌할
나타나지
##바탕
유니폼
가파
한통
모르는데
관제
떠넘
한성
이더
받으려고
하기전
일세
##대결
계는
운동장
실존
이직
반감
들이냐
공직선거
오름
모녀
소아
주며
받아야지
징글징글
하시지
살펴보자
##소득세
시카고
시전
서리
매크
##경비
보임
벌어지고
##고발
사적
회화
씻고
하는데요
달렸다
##토지
아르헨
틀니
한적
위함
자초
##했는지
거요
사재기
##튿날
##저트
##맞는
내려온
고양시
독특한
들리지
싣고
모르겠네요
김정일
방면
핵실험
##out
여의도
동호
##하더라도
없어질
##소송법
왔을
신상공개
시어머니
##ism
받았을
않자
입다
습격
##드림
좋아해
터뜨렸다
깔끔하게
친분
##94
which
않기로
연이어
21대
데이비드
잠시만요
골자
올해도
고귀
노리고
New
사령관
범법자
단합
바닷가
주실
오르면
##성기
진한
##만큼은
김용
찾는다
로스쿨
맞지만
즉위
보시
1970년대
마음대
하게도
베어
##노미
##할텐
아버님
문준
##중간
고모
양사
##기한
sns에
쓰다듬
우즈
카리스
##거리면서
해주었다
후세
열풍
##러드
나라경제
##관계자
##조달
##찌감치
언제고
부가가치
전속
##충이
히로
전당대회
모친
침범
3선
일자
##입학
벌어질
본연
db
에너
옳다
주면서
줘서
폼페이
##구로
000만
해서라도
들었습니다
##ual
가성비
##가진
최고경영자
나간다
뻔한
##그라
##스럽다
금융투자
서기
입는
공기청정기
관악
이튿날
증가세
##분립
져야
##하자고
미끄러
##시리
가마
요거
증액
##마세요
덮고
##냅시다
##져요
성주
들이라고
정권바뀌
없어진
살려고
주일
하는데도
골라서
만이다
원피스
##산업단지
##201
가급
안그래도
지겹
됐어
##나이
그치지
알려주는
볼넷
체온
광우병
관건
펼치는
##캐피탈
도청
아세안
악재
야지
처절
나랑
발끈
응징
받아도
세게
취재진
만나기
엔화
##인게
연구팀
매사
저출산
없었기
둘러싸고
무방
##ㅂㄷ
서너
베이비
##eth
##에스
하루종일
##주냐
##희정
##벤처기업
좋은거
기하
미혼
스카이
않으려고
결실
사탄
뽑고
굶주
붕어
드러낸
듣게
대깨문들은
##났다고
상반
웹사이트
##글로
연안
보여줬다
안좋은
정숙
시동
축사
안되지
##정보통신
2호
국력
는다
##강점
받는데
입당
칭송
##도리
조류
안드로
일식
담장
인위
앞바다
되지않
물러나라
당나
##요청
염색
##중단
떨리는
작아
드린다
처우
보도자료
상공
불복
한테도
차이점
여행사
14명
춘추
8개월
##탄압
아이구
파우
받는다고
다물고
이식
올라갔다
##초등학교
치욕
마라톤
##드립
인민재판
##로만
##습관
쓰레기통
음란
##ne
##중개사
##촬영
병상
이런놈
찍었다
어려웠다
엑소
올려다
챙기는
문체부
신조
114
남미
시련
##미술관
차츰
시궁창
##87
강성
한듯
외계
구급
군중
맞는거
수료
울릉
있고요
묻혀
구하
입어
알레
노년
적군
으켰
만나지
과로
않겠다고
##원수
그라
cg
백만
해야겠다
과징금
덴마크
있음에도
나보다
빈번
##라기
수요일
2중대
##민석
새우
구매자
영화제
화되고
##올로
평상시
답이
연신
마리아
완치
의정
##지도록
cnn
매운
비추어
##전체
들어섰다
세로
##워야
죽었
##분쟁
높다는
건강관리
표결
##해운
김영삼
보내면
##가냐
스파이
오백
##양식
흡사
달걀
위배
##거라고
##산다
9회
##64
하자마자
미인
##음료
산학
삼청
등록금
넘나
줄곧
화할
황대표
나아갈
행정안전부
적의
##시점
수반
이쁜
2주간
그래픽
손절
##꼴통
##불가
##서기
반대편
세심
안되나
발자국
나이트
드리겠습니다
떡볶이
##테러
수사관
서슴
105
나아가
부위원장
정립
편찬
항만
돋보이는
우동
바람직한
무너진
벌여
편집자
시바
신의
직위
##베스
500원
##끼고
##되게
이런데도
낮다
##의지
호도
요가
퍼센트
3의
##벤션
이비
찾아왔다
오디션
##코로나
태영
왔다고
챙긴
##마드
남경
떨거지
없었으면
추론
디즈
없으므로
##에게는
김장
##하듯
불로
타석
##더파
세무조사
##전망
따를
##퉁이
한짓
##수소
##타임스
해드
허수
잘한다고
산업부
만큼이나
그만두고
계약서
거시기
짜장면
##orld
안찍
외치고
##이니
그물
쓰던
넘는다
나타내는
자리매김
에버
풍년
고려하면
결집
##ep
고아
남을
아는게
##배기
쳐넣
##왔습니다
부르며
명제
스는
##ma
조원
배럴
엄한
명동
할려면
##오른
골수
부엉
컨디션
입수
##욕장
내밀었다
13명
##다니고
괴로워
애쓰
##느냐고
##주라
변했다
해드릴
18세
3곳
살포
노동력
술잔
고비
대도시
불합리
물속
받았다는
##주나
##슬림
내려와
됐어요
에디
임시정부
##주면서
삼았다
이점
넓게
적반
하셨던
##합니까
##상식
##싫어
##계산
ir
대공
하시죠
합격자
상류
입국자
올인
##러지
나스닥
##도는
##다니며
틀린말
입안
퇴직금
하룻밤
5조
펼친
수중
과천
남북관계
##세가
떠들고
들어라
OOO들이
드립니다
슬로건
디저트
##24
##불안
점심시간
잊혀
##가짐
##있는지
놓지
##해봐
##앉았다
들어가지
##TV
##주소
밥상
수산
바라볼
드러내고
밟고
태종
##표현
의료보험
훈장
##위조
##돌았다
##갖고
당근
버린다
초라
##진출
이번기회
없었다고
소소
가며
근성
##왕조
##멘터리
상단
쓰는데
삼겹살
네이버는
꽤나
가든
타깃
아들의
망각
본문
열람
말아먹고
기쁘다
깜빡
내걸
몽땅
문헌
안타깝네요
총동원
한테는
관절
매뉴얼
##지는게
하겠나
울타리
##연료
나몰
야심
##기며
따뜻하게
알려주세요
파동
##행복
가늘
모스크
반역
##르자
송파구
맞물
보컬
이뤘
전철
희귀
Wh
남산
##기네
진행중
보호하기
##old
질병관리본부
##클리
9억
였다는
##sj
##파업
수출규제
전년동기
##ould
판타지
##저래
말았
시트
19가
##케미
아니하고
단결
원소
향하여
했거든요
##학위
나노
넥슨
바늘
어휘
들에게서
5000억원
식약처
2로
하물며
불안해
야단
경품
감추고
##거림
##일동
낳아
속속
투구
##정말
##매국노
300명
변이
잖아요
경관
햇볕
흔들었다
애널리스트
줄고
오세훈
속옷
아뇨
##준호
트로트
##합의
탄식
밝히지
##베스트
꾼들은
본관
괜찮아요
좋으
내몰
돌아오지
차로
##약자
##미세먼지
국가유공자
##언더파
##꾸라지
뒷모습
이광
잡이
체면
##디움
신탁
##농장
귀중
##첨단
##했으면
장성
알아듣
##베이스
사냐
앵커
입체
정사
없었다면
성욕
한수
##실히
되는거지
2곳
굳은
시크
정도껏
저런걸
##함은
그레이
kb국민
##차림
##일기
헤드라인
가거
##이사
끄는
정형
단기간
##캠퍼스
많았고
우러
토요
층은
오신
##이래
불쑥
##프는
##검증
탈세
뻔뻔하게
기승
몇일
##DP
하였던
진정한
##HO
##응답
##물었다
놓는
만들겠다
책임져야
두리
승계
##면제
무책
안함
아니였
##라는게
마산
였다면
##오나
일컫
암흑
##마시고
##답시고
떨어지지
의제
하와이
있을지도
버림
개누리
검열
누르고
늙어
떨어져서
전일대비
한은행
협치
##쿠스
가식
되다
##지마세요
트랜
##셀로나
무기력
##폭행
수질
아르헨티나
김성태
##잡을
문희
##가수
멍청이
거치
대포
국기
깨우
완수
했니
프리미어
하사
##라이나
똥물
하셨는데
세일즈
##무진
움직였다
컨퍼런스
2도
하잖아요
메신
주십시오
달리고
정정
칼날
탈취
반려견
국물
##oy
국정조사
ev
의원직
경쟁사
ag
거제
국민투표
적절히
통화정책
기고
내신
미드
모르겠는데
들어가야
광기
받았습니다
그말
##다가도
##ev
궤도
그루
였지
##갔는데
##가동
각도
관직
##오일
모가지
##ile
보이게
##근로자
축산
##노라
클린턴
변론
역풍
정관
화사
테니까
##저우
2점
하는말
벚꽃
##리는것
여행객
없이도
3기
당도
안면
골고루
집무실
아름답게
자치구
##릿한
만들자
서적
내전
비만
유비
중력
계세요
삼는
2000원
포스터
고마움
숨겨진
불상
2기
2항
##bp
##르네
200명
검진
폴더
참아
봐야지
만해도
유한
산재
끼는
의의
낙하산
뽑아서
중앙정부
과대
도매
잠깐만
태어나서
염원
##무치
##쩝쩝
나옴
잃을
이대로
##자녀
거둬
##있는거
못한다면
##렸으면
않거나
따지
상회
않네
##그렇
달라진다
넘지
조짐
없소
##끈한
##청소
그리움
못하는데
믿었다
대구시민
하수인
2가지
##브리드
준다는
공적
해줘라
##되나
국민혈세
베스트셀러
기인
헤쳐
뭐래
##ire
공업
컨테이너
res
절친
9000원
##이제
##렬하게
##들과
영수증
3도
건물주
내실
soc
몰랐던
탈모
허나
5인
##ose
70대
동북아
할래
##란시스
1000만
##라나
##보니까
1조원
빠지고
##줬으면
##저지
##히며
된것
쓰라고
평가다
적와대
자연스러운
비롯된
애로
##00년
영유
강인
포부
금융회사
##75
중국놈
##청구권
트래
##홍보
울나라
뽑을
##기게
백지
사살
차익
공명
새퀴
전이
##시안
이라는데
안받
##ss
소방당국
레이스
엎드려
##기상
소니
차등
##다녔
잘못하면
##과학기술
16명
##참사
지겨
##어버리
##진료소
할리우드
이에
하루만
숙명
##검진
우병우
박사모
마운드
일한
공수처법
##트라
하나인
클리
##교환
그랬던
##꼬박
다주택자
혐한
가져가
네들이
##인격
잘하세요
귀가
##진행
##흐름
울리
해리
이구
발현
미수
거래량
##부르크
밑바닥
스트레
라임
##워라
몰카
##셨네요
##춘기
안봐도
소고기
곤두
##배송
개거품
전례
저런놈
참신
##주장
혹시라도
이온
100여
평범한
단풍
반가워요
맑고
떨었다
막론
구실
망한
촉새
호르몬
세번
이르게
##니지
한국거래소
송치
하구나
행세
##하구
##ecd
순찰
한몫
마일
압승
하리
뛰었다
마중
시연
화요일
자행
하시네요
젠장
핀테크
호황
올라오
있다는게
펼쳐진다
취하
백번
##권분립
##분자
압축
재즈
높아질
분주
끝나지
안목
믿기
욕나
터무니
끼치는
조아
ㅂㄷ
동학
등지
싶냐
성품
찬스
총액
색다른
다니던
그러시군요
장중
솔직한
전격
선심
##신탁
적반하장
더운
몇달
스킬
##구녕
기술개발
저지르고
중고차
할당
했기에
하셨나요
페미니즘
로가
싱크
만하면
##라미
##면세점
##ric
##볼까
##물품
못하네
명백히
##었구나
이제라도
지지하는
저급
빼앗아
##감소
##주로
만점
액체
##스틴
##졌는지
않았을까
기탁
손발
함께한
던지
님한테
임대차
##의료원
살폈
앓고
렌즈
마셔
만드는데
사외
이군요
##전사
다녔다
6번
재택
##노예
편가르기
임마
##돌이
##따리
강진
서브
실험실
##시효
##중이
바란
쓰인
스틸
3만원
전작
##피셜
##추천
통계청
##달고
맞는지
##무식
합산
의구
봤어요
##식물
급감
먹으며
살리고
있겠나
고려해야
양주
울부
##막한
##아닌가
##이노베이션
되지도
종속
이라곤
이동통신
##지법
##형사
숨어서
카테
##지도자
틀림없이
##상자
지방세
있겠
후계
##브리핑
커지
힘없는
##란트
만나러
물리학
프로듀서
##39
양복
아리스토
##나기
##보전
생사
맞으면
##민주주의
이병
안되는데
다친
상수
일화
##lb
다룰
불투명
함의
##블록
높다고
특기
한나
일제강점
잇따
유유
캠퍼스
씨부리
머뭇
벨기
색기
승려
##52
##로당
이었지
사다
##파괴
밀양
상륙
오세요
1이
구구
##감시
모르겠어
김밥
뜻한다
나눴다
흘렸다
시키려고
##놓으면
##인데도
국한
가져올
연초
채우고
하란
4분
자기편
높아졌다
##ope
##차익
##형제
도시계획
겨울철
르네
다이아몬드
##아파
알지도
타당성
믿습니다
존속
품절
원로
거슬러
##합병
##수용
17개
부득
##확보
하여도
공허
##채권
##퍼드
콘크리트
##하실
손녀
적이라
시의원
죽이기
개천
이루어져
8억
울렸다
새끼야
타도
후문
##노무
폭파
훔친
##중기
have
##링크
됐는지
##ton
kd
클라
허벅
인데도
##able
반듯
108
가깝다
##하더라
##크림
부임
##모르는
##없는데
상이
##조항
육지
장본
##퍼니
##현황
나한테
도산
입성
##려던
노원
아지
샤오
##조의
궁전
싫지만
티저
발사체
갱신
되실까요
기울여
물어야
휘말
미달
쥐새끼
경북도
이데올로
밤낮
머니투
미세먼
##깨비
김학의
방출
흘리고
신차
자연스레
섞어
돌아간
2008
국정운영
면역력
격상
호호
왜케
떠오른
따르지
##망정
갈비
유서
태생
명함
시한
##상도
한복판
잠복
무혐의
드럽게
##ER
##증후군
빅뱅
여군
놓을
##차이
##희망
주댕이
휴지
afp
4가지
그당시
군사력
없거나
였으며
호박
##하기만
##co
##oug
맞춰서
장거리
일본차
어마어마한
예우
20개
수박
했는가
##러블
장애물
여론몰
컨셉
##휴일
서정
다신
무주
##알바
입문
처신
마늘
성기
도미
시속
패밀리
##어버린
##점수
드라이브
##보이는
날조
쓰네
##하자는
로이터
##가없다
##공유
경인
똥줄
무명
##걸까
모용
어선
사설
못잡
뿌린
사사
하루도
행정청
이슬
제지
##염병
sec
천문
##세여
##태평
##ide
됐습니다
피하고
같은게
유모
불문
##플랫폼
색출
##이랑
##꺼리
##디자인
만난다
보내세요
솟구
한국전력
##are
서대문
의병
##점유
지롤
교복
왜이렇게
월화
##조장
수컷
대검
마찰
##urn
실검
숙여
사회악
cr
테슬라
기술자
줄어들고
상급
직책
날렸다
다방
창구
##더군
꾸려
배수
세웠
손꼽
기독교인
비주얼
##소시엄
##구간
oled
했지요
##준다는
치아
쿠바
##휴가
종영
당정
같은놈
많은지
치른
멀지
어벙
유병
생산자
신입사원
송구
##비판
여겼
잔디
저널
고운
상응
##뜨고
워킹
즐거워
어지간히
가는게
퍼주기
살펴볼
접대
키트
##지않나
인텔
##강수
경멸
##일러
맘카페
재상
##부자
재량
타결
##가상
이들이
제7
존슨
힙합
들며
잃어
꼽히는
웃겠다
후대
pm
끊이지
부시
웬일
찍어서
첨부
##들인
##ix
경제력
털어서
골로
나리
구비
두근
홍위병
##노래
정신차리고
무성
풀리
신청서
신나게
##채용
내면서
넣을
항암
##장수
##착오
금융위원회
심사위원
##세종
부끄러
한국사
에혀
와우
재편
친환
유관기관
따까리
그러는데
반장
괜찮다고
원주민
그런다고
아라비아
효능
##만대
벤처기업
예감
대두
속지
치자
고려한
임시회
##명단
충실히
ft
##렌즈
몸부림
화도
밝고
이루지
3세
완장
##친화
##높이
흔들리는
차명진
니도
띄는
해로
##만하다
펼쳐진
바르셀로나
지낼
지나갔다
암컷
##당초
밀리
일고
##좀해라
##맞춤
다크
산물
현존
##결혼
외치며
임자
최고위원회
원자재
홍대
##지침
적국
##이구나
이었으며
가볼게요
보듯
##ase
##담보대출
뛰어들
우아한
회고
넘들은
얼룩
##제표
##공모
했네요
##같다
밀착
걸린다
여진
치졸
##줍니다
만들어놓고
3000원
싶었는데
##빌라
유희
처먹고
oecd
알지만
cp
학창
죽자
반가운
사거리
올레
백색
양손
쌓은
한개
와대
##센스
성실히
하트
아니라서
##문수
다큐멘터리
거처
##않고
의구심
오라고
라는게
열애
모듈
##동의
촉발
명사
10억원
밝아
##급히
일찌감치
##과대학
해야하는데
방관
##하죠
##담배
가져오
여기서는
##ina
돼지고
욕해
10위
하겠는가
접한
ny
만만한
짜증난다
카리스마
리뷰
하리라
에이즈
인조
현대인
##변동
거의
##퇴직
흔들리지
똑똑히
넓고
이루어질
두세
##ics
하고있는
바다로
자루
건넸다
는게
불사
한미일
##그네
드러난다
주소지
부추기
##살이
호재
365
탐사
이상황
되요
선점
일깨
차릴
어쩌나
만져
역사상
굽신
아랑
##방학
지켜보는
어쩌냐
들판
검사장
도보
이코
놀라움
가끔은
제철
좀해라
##북부
환경단체
An
론자
몇천
이같이
잘지
넘겼다
##줍시다
##믹스
자다
20억
풍자
볼거리
장애인
제치고
넓혀
캄보
쏟아지는
스미스
재임
##은것
높아진
이민자
정반대
휘청
1과
맡기고
적다
실리콘
##정식
##천구
수십년
제후
도적
막론하고
별장
빨대
##배치
ㅠㅠㅠ
##차트
갔냐
니미
있겠습니까
곤충
애착
엇갈
하기까지
워터
자본시장
여력
본청
속마음
##ode
대서
않지
무실점
##동부
사라진다
가릴
동점
나폴레
##시픽
이랬
남는다
두면
변질
국영
##텔레스
##안전처
거스
기웃
다뤄
##히트
법규
편이
화다
##접수
콜라보
있거든
우두머리
김수
벽돌
싶지만
효성
##소원
근로시간
##먼저
하이브리드
로에게
온천
돌릴
혈관
##ivers
나기
생체
##맞게
그렇게도
저금리
ktx
하기보다는
됐네
스포
##주시길
bmw
msi
어이없
됐지
안희정
정적
종부
추하다
가끔씩
쉬워
양키
판단력
멈춘
싸구려
잘먹고
2009
다산
유쾌
힘껏
갈망
폄하
##제작
##선다
그럴까
수치심
평년
여느
국방장관
1승
되었기
떠나지
맡게
##들이는
ㅡㅡㅡ
lte
칼럼
네일베
좋죠
##aw
들이니
섭섭
500명
1960년대
결산
않다면
리조트
옮기는
협의회
남발
해보라
새정치연합
김지
땅볼
똥싸
##주는게
##증진
##찬다
있을것
복권
##집안
한다니
못하나
만들어내는
쓸데없이
대림
SK
15개
JT
원동력
##방어
분야별
남짓
##차단
예시
##본데
9만
없겠지
자만
끝판왕
까라
추리
##즈음
라야
뽑아야
적기
넘어섰다
틀림없
스토어
이뤄진다
들인지
납니다
보여줘야
허브
산업단지
취업자
보고싶
벌벌
거미
듣보
통수
해져
##모리
두꺼운
조종사
보궐선거
##라이언
시위대
낯짝
그릴
생년월일
##장학
##특별위원회
변하는
골프장
##전용
##셨군요
##pga
받기도
간다는
새마을
했으니까
아프고
##파수
누락
죄질
##국대
##주의보
목표주
18세기
잘못은
메갈
열리고
저마다
결사
인들
##맞고
시키려는
징용
핀란드
##활성화
적시타
필기
##지출
##릿수
##살다
부끄럽지
그자
출제
를테면
질책
무제
코앞
보이냐
알겠지
오이
##렸어요
인아
해왔던
출하
2000억원
신용등급
광신도
업고
cs
당혹
울부짖
무마
천문학
통곡
스프링
많으
본국
좌파정권
떠올렸다
모텔
되더라도
이제서야
깊고
##27
##뮤직
알고도
아시아나항공
##먹어
##았으며
자궁
재심
한국전쟁
저러니
진흙
##건수
중견기업
언플
##비서
머하
빠지지
월간
하루아침
불법행위
##정치인
가지는
초중
##렸어
반쯤
##의혹
##출동
이십니까
장부
무형
뱃속
에티
종특
후진
들어오고
항일
WHO
금연
내포
보류
촉촉
##란시스코
##나보다
##있다는
##났고
만두
실제로
충남도
살펴보고
꼬투리
대회의실
인삼
##었더니
##확진
농림축산
##모집
연못
기다려야
##줄게
늘릴
애완
##했을
인명피해
##플랜
강해
국수
문법
방심
안걸
쳐도
막힌
받는게
대군
알았지
나자
빠지
##뚜기
대리점
솔까
##33
허구헌
바래
길가
망국
여자애
뒤흔
손짓
정준영
이뤄지는
어두워
속담
다르다고
일제강점기
터라
먹게
토왜
이기는
지켰다
내려오는
걸리지
##초리
##격수
감사드립니다
절단
평정
##패드
프로이트
##어린이
금고
##할거다
잡것
##연수원
아세요
명박
콩밥
##dr
오산
##분별
가겠습니다
마사지
독선
분비
##할게요
##출판
ㅂㄷㅂㄷ
서산
1995년
노파
입각
부터는
하십니다
의거
학사
베테
레인
의협
궁금하네
게다
저년
않아야
##직업
##오롱
##케미칼
비아냥
나팔수
좋겠어
교부
일본산
지휘관
##축구연맹
얇은
감행
아리스토텔레스
##연습
들었어요
##열면
아인슈타인
없으나
풍속
씹어
##았는지
Gr
환하게
자의
본적
연평균
율로
불완전
안됐
찰스
가장자리
불고
햄버거
되겠네요
오랑
각인
그쵸
60세
메타
병자
종양
인종차별
배웠다
ind
##겁니까
미생물
노르웨이
자중
호랑이
나랏돈
간과
해는
##은게
파렴치한
알라
우와
암기
왕복
휘발유
PD
결여
국제유
물러서
깊어
잘못됐
서울역
못지
세분
틀림없다
개한
일해
##껀데
##화탄소
이새
##심의위원회
진열
##마진
반공
후유
달라지는
쉼터
##이크
##신다
정쟁
가진다
영지
내려야
가이
##ype
엔씨
어떤가
##용석
pe
##검찰청
갤러리
예리
검경
스트리
뚫어
판매자
어려우
다카
##래미
잠겨
보내지
아쉽다
무슨일
미터
들어온다
찾아보
해서도
##했음
##세지
dis
불구하고
개원
##oth
채무자
아니랄
구워
시녀
청량
나폴레옹
삽질
꿈틀
무릅
우르르
기여한
sy
사러
송도
따돌
방통위
전하는
젖은
str
고충
없었다는
됩니까
찬란
추이
다니지
꼬집었다
멋지게
전향
##뿌리
사각지대
도의회
##지인
##분명
경희
유급
투덜
##통치
보령
잔잔
##꺼면
동계올림픽
장바구니
##이건
##상스
c씨
강박
북방
빠르
##색기
볼까
인플루
##티지
경각
생방송
휴전
갖은
JTBC
##해주면
만전
전임
전자책
아시안게임
다가올
나라다
다르다는
##일치
먹어라
창설
##소독
미주
흩어져
##침체
하는군
179
미나
주님
배열
##스톱
괴로움
##다오
중위
공신
중학
##그머니
##ok
느껴질
풍성
이아
화두
##자비
태아
##계급
##00억
##port
토막
노고
팔려
머리속
지탱
##테니까
산다는
자한당은
빼고는
해줘서
맞추는
받았지만
##ife
여기저기서
나부
누워서
떡검
보기도
교통안전
신전
좋을까
암울
요령
공동대표
뛰쳐
였어요
피는
##거려
이북
##릴라
##저축은행
투여
어디선
지나가던
매몰
이거든요
몸짓
단말기
맞추고
수군
수영장
학점
일리
올라간
부럽다
디스플레
선별진료소
장시간
아서
퀴즈
##징어
##덱스
성과급
못했다는
느긋
지게
의전원
##내어
난무
좋네
포즈
이러는
테니스
##a는
##빠리
연차
dr
중형
5시간
##붙은
허벅지
흠집
능가
##퀘어
글쓰기
공직선거법
목구멍
버려라
압류
어업
10도
뭉쳐
올리며
가계부채
분식
##지않는
오지네
비관
코인
전까지는
속여
##로소프트
##여금
##먹기
##일간
알고리즘
실세
재기
##자니
듭니다
쯤은
##애들
파급
##경남
##농가
미숙
거시
방화
롯데마트
이루어진다
##세탁
살해한
##창고
들다고
매너
##만금
##나오는
##이거나
##불위
다가갔다
##실수
##며시
k팝
키보드
정신차려
꼬박꼬박
개고생
오타
없겠지만
적격
4층
내놔
##소기업
안좋아
##나가고
나서지
성원
나가라
그런게
뿌리고
동문
하아
바그
자주국방
법학
잘돌아
항체
너무나도
겪었다
재건
##채무
##팔이
대깨문들아
거둘
에이치
무모
화석
소식통
철새
대깨
##도못
사라지
양승태
모를까
104
##대면
미친다
삽입
우측
##발광
##32
살인죄
교보
##말종
##졌냐
말종
십여
리스
북돼지
사업계획
##라이프
He
소박
겁나
##평군
살처분
살아가
##솔루션
잊은
친숙
##무늬
저었다
상소
##났는데
가깝게
귀농
붙어서
모르겠습니다
바디
바꿔서
진단키트
##cy
사체
부검
챙피
호전
##오피스
하는일
##회의소
슬프다
##치매
지배구조
말안
입주자
##지정
##불매
잘해야
전하고
하나님
캄보디아
난방
수건
칸트
사춘기
이세
판교
되는건
2등
식재료
##케이스
125
집안일
유승준
되었어요
##ade
철판
##볼넷
##ero
##ont
가히
행렬
풍부한
누이
능숙
차는
etf
서늘
성벽
##대군
침수
##않는
부산대
가둬
드러운
수성
점진
국유
재테크
합창
##휴직
가뜩
낙인
웨딩
##의전
경원
독보
수다
미학
dm
여성가족
안된다는
No
될지도
##었을까
미친듯
매달려
실효성
뒤돌아
숙이고
나오니
설화
##ail
##소니
긴밀한
스럽습니다
맞아야
공영주차장
##느라고
선전선동
요양병원
MB
나나
이인간
##실업
악몽
울었다
제각
되겠냐
듣는다
자사고
연필
툭하면
##인물
부리고
수제
타워
중장
코끼리
때린
인권위
브레이크
챌린지
보이네
그럴수
농어촌
놔두고
선뜻
여관
그러세요
모자랄
마음가짐
159
수강생
못해도
##진다고
꿰뚫
빈틈
올려놓고
말문
표상
약사
후안무치
당나라
참배
재검토
나흘
색채
않았어요
오냐
##바바
##리지말고
아드
##부름
서글
백배
##모아
잘한거
않네요
푸는
허탈
##습기
GDP
들어가기
##셨을
sns를
구석구석
마술
창궐
되는구나
가인
6천
서재
쓰는거
내시
망친
정녕
##았기
본회
카피
##강도
하태
육상
정글
##공신
##단체장
청문
현대건설
부르지
론적
비켜
정책위
##느냐에
메르스때
고혈
##주는데
org
허구헌날
숨쉬
유라
##냐는
해서요
심지어는
강하고
안겼다
##ann
거고요
홧팅
없다며
2000년대
비영
##치던
도사
350
재인아
이잖아요
일터
보지도
영위
파멸
헤이
닥쳐
##마땅
고기압
##봉사자
거액
천둥
춤추
흘리는
모르네
하는놈
돼지고기
도마
놀라서
왜요
질로
북경
공청
##고대
론이
별일
받으러
탐방
##인프라
##해달라
여간
##상선
##플라
100억원
가슴속
개업
님들은
텃밭
연방준비
##스토리
갈수
장내
커넥
해두
맥도
흘렀
뒤질
디테일
##네트
나쁘다
간병
##겹게
14개
보네요
##학력
기장
카테고리
참여연대
떠오른다
경보
됐으나
따랐다
초보
호날
##계열
시민사회
##체육회
진상조사
Mar
##보내고
찰나
세탁기
세속
##기레기
그후
이케
##인재
##테스트
##각시
오지랖
##합격
##버둥
곡식
중상
챔피언스
그따위
##터스
##음이
조국장관
꼭두
중학생
##oph
최대주주
포지션
없어지고
차근
쌍욕
##인해
##충전
##뱅이
오가는
했나요
보고회
명소
외고
##ㅎㅎㅎ
임실
##올리
케인
이기사
카지노
양말
유정
케미
6위
ㄷㅅ
찬사
공무원연금
닿는
살살
여운
긁어
관통
억울하게
한거다
##쳤다고
나약
4배
로울
미움
##터미널
조회수
##겟네
순매도
1군
1저자
흉악
##도구
##팔아
당하지
정우
##나봐요
그랬어
아재
허술
##44
##중지
##마루
있더라
제9
매춘
##ㄹㄱ
경제협력
죄지
3000억원
사로잡았다
롯데그룹
보인다고
문제지만
대유
대나무
쓰러진
참된
하나둘
꾸짖
돌아섰다
특성상
CC
걸리고
민관
수험생
앵무새
카라
##호식
집요
해놓은
##리우스
자기소개
팩트체크
지그
##맣게
일안
Sp
안간다
후임
나옵니다
깨끗하고
쓰지말고
트윈
굵은
내던
##촉진
빠져서
대역
이한
##하려는
13개
ipo
산악
자외선
##마시
td
본색
단번
디젤
차선
타지
북유럽
중진
풍선
배워라
검역
달간
##언어
여겼다
##종북
제작사
화되어
당진
살균
##부상
1패
훑어
언론인
##제목
##제철
배척
뜨는
이던데
좌측
조로남불
알려지지
들어오지
탐험
흐려
##hd
내려갔다
혹독
##시즘
##되는거
19대
##네스코
나야
오니
했구만
##한사람
비롯하여
##주네
##교육대
돌보
어찌나
토착왜구당
김모씨
호흡기
옮겼
재학
가뜩이나
저해
좋았을
침공
사유재산
처해
##주어
##마련
부응
아득
이만큼
##일텐
시조
초토
서울고
스피드
인심
##올려
어디서나
##냈고
걸림돌
만지
싸운
풍기
##ject
하는지를
곡선
공룡
##찌개
결핍
역쉬
세계경제
순방
보건당국
접견
##가는거
싸다
일가족
##실현
찾아오는
하루는
건방
나뉜
에구
였기
##일당
##물건
##나오네
90년대
못사
작사
퍼붓
##도둑
##불능
bts
무난
선대
나뭇가지
갈때
찾아가서
##iss
줄어드는
담론
에세이
마이크로소프트
기절
좋아하세요
##워즈
갈래
위엄
##답다
4도
남매
실점
한장
역시나
몸소
승소
##된거
주식투자
하얗게
잦은
질을
##입니까
##ings
강용석
소림
열대
##카메라
##짜기
불안한
지름길
##들게
##왔다고
허수아비
적임자
자재
해처
국무회의
##을려고
이기고
있었을까
고찰
여배우
자선
##다보니
살아가고
되돌려
생김
##하늘
경연
꼭대기
문턱
있어서요
수십억
비굴
지르며
##cr
다저스
전가
질타
패전
전한다
첨가
취하는
열사
##sk
##메시지
심문
울음소리
니즈
공연장
뉘우
쌍용차
멋지다
묶여
##les
한국도
다른건
협력업체
신봉
인적
직결
토양
임상시험
무슬림
##공약
25년
##이행
##트러
침실
황사
창밖
발작
증설
##맥스
어울려
코오롱
행안
유쾌한
통하지
##신가요
그래놓고
뽐냈다
1996년
붙었다
쾌적한
이용객
보는것
못하였다
le
1980년
dj
##만하고
방황
우버
##ha
옆구리
##23
스로
편협
##제주
외교관
##였지만
##자다
19에
이제껏
건너편
수요자
쳐다보고
##묘지
100개
지나서
나씨
쓰세요
코르
적절하게
에대해
##시켰다
##자루
끈질
경제폭망
어렵습니다
하소연
##아빠
있을수
어리둥
불거
맡는다
삶은
##해져서
##리얼
##부서
버디
인척
##입국금지
왜들
뒷북
외쳐
##공천
미덕
남로당
연민
##가안
보내서
물어보고
맺었다
##빼고
위해서도
천상
##치는데
##망상
##금융그룹
##yr
강압
소정
##유학
##턴트
막강한
많기
센스
가처분
마포
부어
##ology
##하진
##세서
애교
우라
##ys
자폭
재혼
노동당
나오면서
지지층
빌보드
조업
공상
따님
여대
힘쓰
못사는
민변
설렘
우릴
리서치
발버둥
봉준호
##원지
real
두껍
속셈
말고도
아파서
읽었다
정했다
특색
교대
알것
107
둔갑
##치아
##웠지만
육십
설쳐
아따
109
고른
않았어
지난해부터
죽어가는
연도
지녔
##장악
##었죠
리콜
들었고
##나물
지나가
이틀간
일탈
360
백두산
동사무소
왔다는
조서
좆선
##모토
좌지
계몽
협의체
시끄럽게
꿈속
자책
제니
행정관
##정서
##oss
내린다
분간
가혹
급기야
##모르고
감추지
더할
청각
봤냐
놓으면
주축
##클래스
웬만한
제나
간소
동사
컨소시엄
##죽일
하루라도
온실가스
발등
멀다
시킴
##가전
혼돈
##언정
중요시
움켜쥐
##커머스
내놓았다
뭐니
2007
에가
휴양
잡는다
언뜻
동반자
##지원청
저소득층
보너스
조급
눈먼
강하다
외제
115
공립
넘길
심층
학교폭력
무역전쟁
##귀포
그런건
문주
##문고
##할일
야채
포드
찾아오
##센터장
te
다시한번
독립군
로를
크다고
있었네
수긍
규모다
두달
cov
유네스코
노란색
가두
넣어서
샌프
굶어죽
##졌으니
고안
면밀히
해봤자
매일매일
des
그름
크다는
바뀌어
고스톱
메시
수순
피식
개망신
띄워
흑백
요지
시뮬
정오
망하고
무법
##돌고
##승인
동아일보
성화
##러는
아베한테
##증가
코레일
##줘요
담화
일수록
##그려
##다음
they
가닥
인에게
주파수
##한놈
##였습니다
변동성
물갈
안위
##ely
1차전
어젯
웹툰
##소대가리
페르시아
sr
##부패
메신저
타국
##커트
103
##거리지
코칭
##해지면
시범사업
되려
만회
십자
호투
##일반
cf
필립
##려고요
셰프
이런일이
마진
번식
오디오
##이가
##헌법
맞추기
장남
##보호법
##싶네
자자
하가
8천
8000원
공용
다가온
##국제공항
황급히
##아베
##운송
개수작
합계
친인척
프레스
##태평양
##대서
보신
##리시
##교섭
##나오고
아플
유씨
저택
##하락
##루미
마셨다
흐뭇
정치자금
1초
들좀
소변
씩씩
##가튼
##평구
자력
소행
외관
지지도
있는지도
참패
되살
염증
##신호
뒤지
소관
우째
국악
##체어
지중
들어보
000명
조두
차도
##스트리트
받을수
뒤따
터지고
못지않게
덤벼
원흉
이강
투자의견
떠받
맞는다
넘으면
시키려
망가뜨
##건대
##하겠지
##처드
##연봉
이니까요
comp
술자리
해쳐먹
막무
참견
##했기
미군철수
낮고
##과도
##폐기물
##신천지
1기
남아있는
##ement
끊임없는
강철
연구진
인내심
##호구
스탈
이용당
엄연히
이데올로기
불려
싶었지만
서울시민
도태
딸년
직속
##키퍼
3억원
곰곰
이런식
일로
비상식
어지럽
##전파
선거철
이이
파스
##달러로
##안다
버젓
시커
##ery
##월드컵
미운
인출
찐따
##모비스
하십시오
가리킨다
##반도체
사측
신당
안민석
토마토
조구기
##크랩
재판관
바뀌지
민간인
가와
무영
읽지
업무상
실화
영조
내려가
서울시는
문신
정신차릴
kf
문인
삼성생명
무시무시
창백
##이요
한통속
에듀
출연자
당첨자
놀랍게도
part
운수
전동
출발점
불허
폭도
선보인다
이뤄지고
##살고
##하려
전망치
늘어놓
기쁘게
니돈
원룸
지평
이러면서
깎아
파크
##질문
허영
##교주
##미안
못했다고
흔들림
lng
김건
고상
우리민족
강타
6조
과언
위계
##소녀
모르겠고
2루타
소중히
설레발
양수
숨졌다
고부
##own
모스크바
알고나
불펜
##다닌
1994년
대북제재
진나
정답확인
들릴
선봉
맨유
외래
##저널
get
po
바쁘게
강수량
##무서
부지런히
두배
참수
##접촉
##당하고
183
샌프란시스코
수식
주주총회
훠훠훠
경감
경성
머물렀다
2장
을지
##tn
카풀
대관
어림
당선자
뾰족
심기
유린
흐흐
cc
구태
##토벤
따라가
##러스터
##방해
고르
찬반
경전
이겼
중요합니다
살폈다
1990년
챙길
유배
키가
ㄷㄷㄷ
글구
##국어
여적
오거
니나
총독
삼성바이오
낫다고
##자꾸
##박질
은유
오토바이
경각심
이없다
##시스트
띠고
조성사업
갈색
발발
신주
대깨문들이
너무너무
노화
##택트
##렬히
부탁드린다
비꼬
하는구만
앞장서서
로그인
요한
목동
##28
올라왔다
롯데백화점
초선
미지
헬스케어
악영향
##용역
##렌트
날리고
성문
피지
개웃
두통
면회
사수
자연히
무개념
태어날
1세
야말
하였다고
팔리
##주시면
##용량
한신
##오오
산다고
삼권분립
##i는
##카운
뿜어
##시국
4차산업
가네
##가내
고구마
##일드
부의장
타서
##틀어
##에서도
야는
##드래곤
이루기
죄수
##고집
불면
서귀포
##자한당
성범죄자
멘트
마드리
이바지
들린
슬라이
##상인
##버릇
##주시기
임한
타이거
스럽지
직감
별것
수갑
제8
일대일
극찬
화분
##박고
활발히
떨며
시멘트
요기
하더라구요
##느끼
따지는
안가고
해남
푸르
##없애
운영자
현대모비스
##죽이고
인터내
지리산
##산단
급진
이해해
##업자득
이여자
죽었는데
교육자
178
주변국
대승
함양
아랑곳
알리기
수용자
가지가지한다
gl
따르고
레시피
업주
##지향
제2항
##가액
##무인
카타르
공채
서울대학교
##지방경찰청
노부
##메리카
상승폭
표창원
르네상스
어젯밤
대주주
부통령
7시간
되든
연회
마지막까지
형이상
##중요
40여
정권바뀌면
펼친다
##원리
##alue
후계자
짤라
장례식장
##바겐
40명
팔레스
지역민
동물원
되신
이화
자이언
과열
##메뉴
좌지우지
##들이고
쓸모없는
스릴
객체
떠드
실버
장로
겹쳐
예쁘게
쓰며
흔들며
탔다
태조
해달라는
돌린
학급
한라
행사장
김종인
궁궐
##고문
고위험
9급
거주자
파란색
단연
말년
비법
##새끼야
달달
변하고
세인트
흔드
##ext
호가
없어지는
정제
자위대
숙였다
자지
##만은
들어본
올라오는
올라간다
빠져나가
##사격
률도
##손가락
##사과
젊고
대표자
##스러움
아들을
한파
따라야
나는데
알겠는데
106
검찰조사
바꾸면
태세
##데믹
##문재앙
보이스피
빠짐
유수
음양
나가기
잡아라
시켜야한다
새만금
##워치
한치
##운지
7번
정전
15만
해낸
##겠군요
어이구
무고한
쪽지
종신
종교인
끓여
사다리
##오르고
##쳤을
끌어당
스트리밍
국뽕
##단말
2025년
처사
##헬스
아프게
제는
https
친하게
최하위
대리인
어필
##중학교
##존재
보는게
붙이는
힘차게
##다섯
보이스피싱
베토벤
붙였다
집결
없지요
16개
가래
재밌게
내려서
정산
##제로
관문
깨뜨
맛있
심경
##요양
막막
##💙💙💙💙
추워
##시각
##국이
수선
화답
높인
만끽
벙어리
커진
시키는데
들였다
1운동
Cl
화이자
##이치
살아도
확보한
귀족노조
인것
고위직
마흔
내국인
원한다
신뢰도
경의
후후
전용면
함수
5억원
찌그러져
판국
##옵션
성가
##ll
유흥업소
부릅
사슴
유보
캐주얼
##할줄
가위
가자고
분홍
ps
##fer
sk이노베이션
김무성
fl
된게
n번방
##드린
한다면서
qu
꼬봉
내돈
멈출
모리
장안
한건데
123
문쩝쩝
건보료
브랜
nh농협
악법
패권
정장
해놓
##지말자
기점
살펴본
강제징용
ㅅㄲ
##해준다
낙동강
부상자
거나
민법
섬뜩
좋아합니다
만족감
1야당
가미
멘탈
척추
##이론
아니한다
일어섰다
일그러
그럴듯
형사소송법
내리지
북극
얼만
다른게
트레이닝
주려고
부속
##인거지
##된것
보고서는
오차
행방
##시켜라
동감
안통
팽창
##500
ne
규율
분신
##검장
##셨고
가르치고
황홀
##고자
일사
아니었지만
기회주의자
##공인
성서
##총괄
그렇기에
18년
손주
표심
##맞아
있는거다
이루어졌다
빈부
이랍니다
##려구요
한국말
많았던
안막
가결
7개월
8도
작별
홍성
##하자면
볼일
##TS
아니랄까봐
샘플
왕창
연명
적경제
올리브
공소시효
배낭
황후
##런트
##차근
##와야
들으면서
피하는
##해산
##전드
낱낱
내세운
채팅
하다보니
놀리
밝게
프랭
않고도
사라져라
중소벤처기업
품종
믿냐
토마스
##이란
빨강
##az
올린다
##바른
영업점
라고도
아래쪽
라운드
흐른
둥지
맞어
멜로디
글쓴
몰살
변환
랜드
##정자
##차기
##당신
##네카
만났을
설교
버거
조속
대하여는
보였던
##정산
갈까
러닝
##는거랑
보여서
lg는
마오
##거주
##탱크
좋아질
그라운드
안팔
##만하게
무시당
뜨겁게
##지가
자원봉사자
김병
증말
##나온다
관용
##젠테이션
일반국민
서비스업
동명
군청
사색
우량
넘의
대령
연임
열중
##커니즘
기초자산
cm
들으니
원숭
최고다
가재
구만
소동
주거지
보았을
##바랍니다
둥근
이산화탄소
선천
##모스
골치
배반
하려던
맞으
했다는데
비워
##학규
##해놓고
추잡한
저런사람
가다가
파묻
##가보네
##원자
로우
식단
아들과
키우기
푸하하
폭우
경이
이따금
어김없이
올려라
있지는
아이가
나락
씌우
위쪽
개도
사노
아우성
속한다
지럴
친미
기체
대일
손익
주식회사
반일선동
장씨
자업자득
잔액
반쪽
보더라도
착오
깔끔한
한밤
갖췄다
##무라
고위급
후유증
이통
태어났다
저조
##영진
##세서리
경수
백날
뻘짓
저만
주니
채찍
천자
##퍼시픽
1달
온다고
좋은일
미친개
불출마
그런가요
골키퍼
교리
직종
째다
어버이
2억원
사채
한판
##사채
강풍
계통
중추
스러움
여하
농성
대위
독거
무어
화법
##주인공
##29
2차전
어떨까요
kg
6도
자르고
따스
바닷물
신생아
하다며
127
안타까움
쓰리
##ata
순창
태우고
허세
##런지
추궁
##깁니다
자랐
5G
평판
하우
어이없는
강변
나오자
않기를
해독
프로그래
기본소득
경부
쓰라
방사선
##주사파
아름답고
폭포
시키면서
100원
못들어
빅토
터졌다
##패거리
각본
따른다
속출
##화재
##피해자
노태우
박아
개량
받거나
순례
##포드
##ise
창의력
차근차근
째는
치과
이기주의
wsj
나물
의인
돌진
모는
##동이
##바꿈
##후보자
비대위
##걸요
##증명서
두께
잡아먹
선불
궁금하네요
ibk
미녀
정주
포수
광주시민
무지개
mv
신변
빠는
##금지법
까마귀
##형태
##발사
한국여자
##♥♥
##해상
md
아니잖아요
안드로이드
dna
했음에도
거부감
달랐
넘기는
월등
체코
##리칸
흔들고
인민군
아모레
산모
##복지센터
뜻대로
죽였다
두부
일겠다
투약
남았
토종
##니가
있었으니
##르드
##웠는데
안중근
lc
태영호
옥천
2006
밖에서
펼쳐지는
3부
공황
살린
연재
유촉
옮길
전시장
##보건소
##대사관
다니다
더하면
지를
배당금
욕실
파문
##개발사업
팝업
중국공산당
대덕
##하노
감사드린다
##마사
할짓
나오나
놀랍다
##뱅킹
저인간
##포터
##양호
목재
거주지
밖에는
샤오미
급변
듣던
봤어
부연
산업은행
입만열면
싹쓸
##친거
하든가
계엄령
##여사
막았다
앤드
해역
국민건강
##직전
##심장
이루어지지
4년간
땅바닥
받도록
##해달라고
물자
버럭
국무부
##용지
세액
비자금
거쳐야
##토론회
모로
이권
##말씀
##게임즈
두기
특위
##수선
##틀랜드
워너
##표정
부녀
피력
##거짓
운전면허
5단계
칠십
OOO야
1장
허경영
나올때
막아라
준용
표절
##빨간
고려하여
만드네
우매
비영리
우발
은이
관철
극중
공격수
찍힌
목격자
뚫린
않으려
전라북도
대내
##질서
##부수
조현병
삥뜯
Joh
##양성
두고보자
개국
어여
웃기지
had
##결합
15억
##어야한다
나아가는
남겼
모으는
##동향
128
구직
머지않아
팔레스타인
순회
슬그머니
오호
##하는구나
물가상승
휴업
게시물
꺼지
연이
자멸
18명
감았다
참을
몰이
헌혈
거칠게
19세
바뀐다
빌어먹을
1을
다니냐
어이없네
벗어나는
내성
비선
있구만
싸이코
개박살
선구
##오면서
안착
외로운
파운드
##무게
##았으나
다닌다
##겄다
환산
가시면
돌며
심부름
전보
##여원
##느니라
해양수산부
재래
##르의
받자
##유리
##form
터득
넷째
바빴
보였고
없는가
블록체인
여주
정류장
법인세
모의고사
2승
간만
쿵쾅
##삼동
이었죠
으론
경제발전
돌아온다
짝사랑
되는거야
나타낸다
##ays
형평성
직거래
It
치르고
##교부
하드웨어
오찬
살인사건
꼼꼼하게
즉석
##해보자
하겠어
준표
##2조
##ye
투자금
이니라
들갑
##더나
불린다
##포지
고흥
어찌되
##왕후
##깽이
회사채
문가놈
기래기
NO
도깨비
하시네
2005
그러니깐
불타
채권자
형사처벌
검찰청
11번
##edia
##당원
탄도미사일
##열차
##바라기
경유차
겠다
밀레
힘을
내뿜
누명
신안
살리는
줄서
##길동
5차
cb
님으로
역세
들었지만
##더니만
4곳
리우
##net
##린데
##벼락
진단검사
염소
창원시
늘리는
뛰어넘는
올렸
현저히
##당이
니말
단양
삼가
펴고
많구나
투사
177
강국
무지한
재택근무
토익
comm
간장
뒷돈
등골
모빌리티
이차
##읍시다
무섭고
깨달은
빡대가리
재학생
쌍용
2023년
떠올려
과감히
튀어
1건
##안내
좋아하네
성조기
고소득
가리키며
바미
음향
외노자
##미리
언제든
없애는
저축은행
해수부
머니투데
연연
특히나
못마땅
미디
##만개
애원
##졌나
##창기
사법농단
##영표
못쓰
막히
많네요
몸뚱
에이터
오징어
일었다
달러화
고맙다고
커져
##라노
##유착
##동계올림픽
하태경
##사령관
##가방
받아들였다
그려진
공청회
재화
허접
시내버스
맡길
애썼
##군인
##app
북송
생각난다
높지
일수
##26
##러기
##들이다
승낙
홈플러스
배럴당
2002
교안
알겠네
##방망
##iet
대표단
낳는
파인
##해결
의료기기
많냐
외양
##들지
인간말종
알겠냐
전분기
##보험료
잘못한거
얼핏
##코트
학비
##부양
해주셔서
아무렇지도
표방
였으나
자생
안았다
초심
##짓을
그럼요
넘어서는
공갈
##진화
##저러
##받아야
당명
##웠을
게으
##난거
실책
성균
사이코패스
로맨틱
아치
조간
만사
학과
##통부
els
그렸다
선물세트
떨쳐
대우조선해양
빛나
앞쪽
##간부
고객센터
불순
완도
인파
연구실
사케
짚어
##리던
낙엽
만들어졌다
유기농
##협의체
단언
##버리는
##ier
##르던
##47
##경보
##왔어요
섬세한
사교
신병
젊음
##사나
즐거웠어요
##농구
만들어지는
국공
숲속
교제
쌓고
인해서
있을텐
거긴
도라
##해군
경비원
em
반칙
##선전
##센티
##보라고
구독자
무도
이키
왔고
좋겠다는
##버리자
소홀히
화랑
##소환
프리랜
용산구
금수저
도면
서영
연중
잔여
저가
##세로
##복지관
이예요
큰돈
##둘기
되어있
만든다고
부드럽고
스티커
망조
##양심
##anc
그대는
가다듬
거느리고
가신
생소
살아있
일어나면
##목적
하고서
##ECD
승강
찾으러
##롯데
강서구
미필
신빙
에디션
지켰
1987년
형이상학
골빈
##이버
1992년
방역수칙
주진
취했다
신재민
변기
##ull
진영논리
낮추고
좋겠다고
##혐오
으음
한둘
##마비
구속기소
킹크랩
나뉘어
뒤섞
원문
##스케
빌리
무소불위
안토
인게
민속
포스
함량
##주부
##져스
국가간
동성애자
매혹
이러스
율도
똑같아
아키
##ㄱㄱ
##많다
이거지
수년간
##열병
들어주
느닷
왔어
##세월
치다
감춰
##피니
보았던
##참모
135
클레
##반장
##잖냐
##멘텀
him
아크
지르고
태우
##시켰
괜찮고
태산
평론
프란
##니발
될거다
베일
우왕
##코프
병원비
참관
모른척
체크카드
4강
급속
사스
##르니
경제학자
단추
한바탕
해커
잡아당
good
유적
##책임자
그나물
직무유기
##of
진다
민주평화
진솔
##und
센터장
5백
으이구
방구
줄여야
증강
##르도
늦지
##다드
해주셔야
소득세
암만
채울
##주변
곡물
희열
7도
돌풍
한채
##봐야지
지난날
##노동조합
상종
괜한
뇌피셜
##트럭
정보공개
##omc
오르내
자로
##복구
ls
구양
현대백화점
##으신가요
모르쇠
누른
하는듯
느껴지
구애
수녀
225
##사망
못하여
##66
복직
헌정
기다려라
##래프트
치지
시끼
연달아
##가지수
정신건강
얽매
나타낸
뒷전
친화
틈새
총격
##나오면
7천
보탬
전업
##갔던
##없지
love
적기업
조별
유체
이질
##르가
저런인간
##다고요
했는데요
울산시장
받으실
모발
해가
##체포
반중
해병대
악순환
흐트러
##일지
##👏👏
##갈때
##제발
17년
6차
두명
달아나
영예
거센
특사
이러다가
조두순
김모
매칭
쓰는게
진해
행적
되고요
불가피한
##왔지만
전자기
다니면
이되냐
구치소
이랄
저렴하게
되새
무자비
##요리
신청자
늘어난다
불씨
팔면
엘리자
좋았던
111
이었나
다르냐
일컬
차입
5m
권총
주디
안타깝지만
무한한
거니
차가
건강하게
##대선
달러로
세종대왕
다까
주옥
스쿨존
이준석
서야
이어폰
유리창
보합
실사
145
레이저
대갈통
제멋
해냈다
OECD
여길
일지도
호화
##제는
마시며
지방정부
갑작스러운
유영
점거
주군
취약계층
금치
##하고도
한테만
알려줄
적재
##ations
로즈
장문
최소화
##겠다며
문예
##석유
일본과
이겨내
지껄이는
선풍
##0000원
원통
인가를
5000명
영탁
이해안
반말
드리면
장편
##려다가
##서부
두들겨
옛말
##항쟁
옷차림
##틱스
##운운
생겼는데
꺾고
누르면
괴롭히
찾게
팬티
##조명
한텐
##퍼트
살다살다
허허허
미스터리
거머
아갈
뉴욕증시
무책임
가는구나
벗은
반론
##캐슬
보수당
들으
먹던
않았으며
벼랑
이철
살피고
스럽네
각계
17명
느꼈던
동남아시아
무증상
돌려보
미니앨범
이기지
##새퀴
섭외
##대갈
지켜볼
오르지
가습기
소심
##설수
##주문
랭킹
일진
과학기술정보통신
kj
##시도
갖가지
##지지율
리처드
바쳐
##김치
fomc
압니다
무거
성급
손학규
리버풀
배추
버리면
##섬유
친다
안죽
##ash
라이프스타일
미정
결과다
##45
있을거
노회
##직스
역경
트랜스
대선때
손가락질
시늉
지질
커리어
도정
진격
##오기
##과학원
김동
농락
대남
외형
점프
죄악
##봉투
번지
다분
##여겨
##법칙
##는거네
가보고
도자기
##올리고
일정한
자기자본
자산운용
모던
올리기
일할
##릴수
광복절
최장
##접대
남동생
어거지
행장
부담감
안나온다
뺏어
##오래
들이기
검체
논술
동인
나가자
aw
주시기
지났다
출소
##클린
지켜라
꽂아
##지휘
##개표
중요한게
##협동조합
아들도
##베리아
30억
농경
제때
없어지
13년
떠벌
메커니즘
살어
성북
알선
협동
수첩
##가세요
3일간
그깟
미네
숨길
외압
##수저
##하시길
괴롭힘
따질
철원
퍼줄
미쳤네
근사
김태우
##말든
아래서
두목
힘겹게
##연휴
보여주었다
괴로
신학
에그
##kw
240
치밀어
씌워
채운
척도
##모니
왔다갔다
들려오는
삼백
이인영
##이념
데카
안그러
일부분
쌀쌀
어벤
##36
##uth
10만명
조국사태
물어볼
1급
내쫓
유민
헐뜯
공안검사
##양아치
알바비
45분
무한도전
각하
고단
관해서
방호
조국아
##상거래
##머님
신흥국
들떠
포크
20도
기억력
데일리
바비
방콕
전승
제물
##모자
분위기다
##토막
방문자
정신차리지
성수
헤겔
깡통
나네요
벌려
있단다
죽이지
고뇌
성직자
##천국
공학
어로
##셨죠
올바르게
요시
올라가고
##끄러미
##해서는
##편향
기업체
동해안
김태
드시
쓸어버
##부여
연령대
태반
둘중
코카
그밥
깜깜
##비교
강씨
##ater
과기정
봉건
인단
차종
있는거야
생각지
울림
원산지
피트
할줄아
정책위의장
윤곽
12만
자유무역
올려야
오르며
##스러울
꼭두각시
괴산
사비
심리학자
서인
식별
엿볼
제소
지기
톡톡히
금태
연합군
전재산
ok
화하기
폼페이오
##전남
몰아넣
어릴때
넣으면
mm
인디언
받쳐
##루만
아찔
혼잣
관해서는
대마도
bn
##포함
머라
##주려고
있어서도
하였지만
스탈린
뭉개
치기
사명감
afp통신
남도
논점
속임
통찰력
꽁꽁
관례
비장
##프스
##연방
중앙선거
ecb
마드리드
선처
작금
전멸
쪼다
직장생활
주거환경
수돗
도와주고
2건
괴로운
느슨
보직
혼밥
먹여살
##연예
않겠는가
8강
고국
내렸
다한
##탈출
월스트리트
스타뉴스
문의사항
보스턴
저당
##투성
이에게
##마블
경기도지사
백퍼
브리
##실록
##동포
2004
해야하는거
후반기
내쉬었다
ㅇㅈㄹ
융자
임은
적이지만
라니까
오래도록
넘어가면
귀환
헤지
##이거
박근혜대통령
##용사
사업주
반포
짝짝
구하고
##기억
저지르는
엄두
##엔자
보내기
금호타이어
##iversity
에있는
##공고
##관왕
유동성
심재
cgv
퇴장
새겨진
과기정통부
루이스
소굴
심하다
국립공원
##TO
님께서는
미역
저격
호출
##오빠
##소비자
내리기
항우
Ph
악한
100배
아쉬워
전경련
목걸
주상
주시고
##르륵
기량
눈부신
루이
목요일
위증
16강
##느냐는
멘토링
단련
##모독
##겠다는데
교향
##화폐
175
골목길
우크라이나
보통주
씩을
의기
여러모로
##범죄자
늦추
갑옷
머냐
아웅
연고
연탄
편드
##청탁
하려다
##대가
이어진
기수
수락
##저녁
국보
해수욕장
우짜
##월급
##왜곡
법사위
##48
없었어요
1에
117
거면
##애애
넘고
저정
내년총선
영업익
저편
버블
정상인
거역
둘레
못내
사로잡혀
성산
11년
내세우
거란
불분명
##나올
##보합
##소수자
개구
월북
똥만
여성단체
bb
뜻하는
쓴다고
영재
임박
깔깔
민영
잠든
니들끼리
지오영
굳어
기다려주세요
그로부터
##3조
1991년
##igh
봤으면
서원
바라지
환경오염
살인범
느린
둔다
풍성한
휠체어
주는데
필라
드세요
팬츠
윗선
##ower
온화
##인양
보여줬
눈높이
맞출
반증
약해
재보
페북
들이란
나왔고
뮤지션
붙잡아
청화
국도
됐기
사은
유류
##스러웠다
다변화
또렷
토벌
귀속
단가
결재
조형
함박
누드
사이클
늦었다
최첨단
끌어안
기막
##여라
##놨네
##미달
시너
용접
수소차
다릅니다
역적
제인
주전
##00여명
보여야
김의
신영
아낌
자사주
냉면
산타
헌데
높아진다
##수산물
##원숭이
정차
산속
이였다
##식구
##셔리
해주기
간결
뚱뚱
영등포
영등포구
벌금형
라미
유격수
탐지
10개월
하였을
챔피언십
합니
검색어
fe
잘하지
##하던데
드러날
노동시장
발렌
esg
정령
내놓을
개의
구천
그외
놔두
아무렇지
대명사
오마
##담자
쉴드치
세르
##광역시
정확하게
##개발원
경직
무더위
여러분께
재밌는
횃불
##보지도
##었네요
무슨말
울어
소리지
받을것
쉬었다
죗값
##매입
##될듯
##필품
별반
보따리
불쌍타
않니
있기도
sk는
fif
첼시
뛰어내
뿐만이
상세히
##보조금
그랜
담뱃
대타
말아요
치르
악행
산림청
영농
##매치
레저
10번
이루어지고
답장
돕는다
쇄신
보이나
##금융지주
막무가내
승마
쓰레기야
알았던
내리면
스텝
ㄱㅐ
갈고
군포
##격리
무진
벌리고
그랬는데
덩달아
모양새
3으로
같던데
공법
규격
순순
news
스폰
##사욕
러시아는
KT
혼동
##내요
그래프
##ㅡㅡㅡ
부관
팔지
##못하게
##경정
##사업장
54조
##뎅이
봄날
##과목
생명력
부역자
풍미
이러니까
고려하지
##같은데
줄서서
추대
터지면
환승
일거
프로필
과외
남측
코엑스
##눈치
해야한다고
영월
이브
하를
협약식
아뢰
판명
##대통
##전담
맛있는
벌어서
졌다
크라
보이기도
경호원
함성
##up
##암동
받아들인
ret
않소
가는거
굴뚝
물끄러미
어그
일쑤
부안
근무시간
해운대
월화드라마
지금도
협동조합
성균관
김문수
졸개
##손손
말던
발정
액세서리
##세우
이분법
오랑캐
양정
레전드
밀가루
좁혀
넘어간
결렬
소양
밑줄
요정
부메
##오픈
확고한
##곡동
법리
올림
칠레
안타깝게도
과격
배양
빠지면
하다못해
##보고서
맨체
초미세먼지
달성하기
기해
에로
진성
건가요
소품
일을
잡혔
안속
있노
##치사
쉬쉬
같아도
들썩
맡긴
발톱
서지
횡포
##사업부
갤럭시노트
붉게
##느낌
세세
화순
해야하나
하는거임
개막식
118
물러났다
##갔을
19의
##디스플레이
##연계
아니어도
사라지지
파이프
4000원
##ED
참말
화국
##목숨
못하지만
장기집
나쁘게
검새
명나
민수
익히
##미친
##다니면서
상도
준거
테고
##내륙
알았어요
붙이
##UT
음흉
고정관념
석열
흘린
사이비종교
심상치
으뜸
##재해
##연구회
거지요
구출
##지처
나라망신
삼은
##oa
되었네
바르고
교묘하게
돌리는
먹이고
##할려고
##강제
##치킨
25도
현미
책장
##바란다
인정한
신재생
쇠퇴
이성계
과학기술정보통신부
마틴
상큼
초원
##아가
관계기관
선보여
##국회의원
받음
끼친
드리는
이있
생겨난
추세다
##야마
수사팀
말지
이겠지만
좋으니
싫은데
먹고살기
부들부들
꼴값
부흥
재확인
##승부
기본계획
##쳤지만
생각나네
애틋
##위해서
##봉이
살인미수
김창
방조
하기엔
1988년
g20
몇이
현우
히어로즈
##보안법
떼고
발족
##스쿨
모은다
배설
징후
팩스
선거개입
생필품
최상위
5층
떳떳하게
뽑았다
##대니
##제출
##sc
하노이
거두고
다나
현저
##보기로
재판장
보행자
##지청
기다린다
배송비
있겠네요
의원총회
올라가면
##전국
박원숭
천마
하거든
top
는거
짚고
향하고
220
있는거냐
##때리
##특구
뜬금없이
라이벌
옮기고
##플래
김광
로리
가지지
밥맛
불거진
씻어
##운동장
전자상거래
주어진다
이었을까
나쁜짓
부끄럽지도
wto
미치고
뽑아준
시체팔
art
어루만
5천원
냉철
대란
오던
30개
효도
힘내라
화되는
계실
특급
루시
##는지요
##ner
물어보면
먹는데
부탁드릴게요
듯이
똥인지
보는거
피씨
복숭아
측은
##년놈
165
##son
붙들고
찍으면
제주시
양구
질량
##남편
문다
다루고
XX
잉여
총무
학폭
이든지
가중처벌
##디다
뜨거
묵시
커진다
그러더니
외제차
일본가서
맥스
배워서
송중기
익스
##사범
##경화
tw
##68
여성가족부
실종자
그랬더니
각광
기로
멀었다
미끼
시책
펼치
50여
체육관
도우미
아네
포켓
쉬어
열리는
일왕
주셔야
##러미
온나라
시끄러운
탈바꿈
제도다
##아파트백
1단
빈도
심혈
써먹
당국자
래퍼
반하는
회귀
##urope
파트너십
##드나
##oul
적인데
대선후보
부로
작물
1989년
선입
인만
##br
못했습니다
##ream
일축
파울
휘둘러
틀딱이
후면
##연립
##쿼터
건넨
넘기고
모멘텀
##노소
##대표팀
서경
##불어
삼성그룹
반값
##사라
간거
안정감
받이
절라
##리터
기관지
PR
적십자
쪽발이
기르는
실은
왕성
전라남도
##의정
2단
내딛
책무
##되었다
car
##차관
잘들
해부
##일까
##무효
잘못했다고
민족주의
##터카
못한것
있냐고
##이야기
깨시민
##발행
휴게소
잘생긴
되려고
유람
한국정부
8시간
껍데기
도봉
원더
요양원
cop
봉급
불공
수만
쏟아졌다
사립유치원
의향
##세키
택배기사
##잡기
다양하게
달려갔다
하는짓거리
폭스바겐
사돈
천성
남게
돌아가서
##기법
##선고
##셨습니까
하기야
줄어든다
속해
충주시
발가락
입다물고
털어놓
가전제품
양지
##주머니
갸웃
미꾸라지
하다보면
좋아했다
스토리텔
금일
##메르
경찰청장
##aver
##못할
너무하네
보냅니다
##67
##종합지수
필드
##시간대
1993년
##stem
단독주택
##200
빙신
잔머리
하겠죠
연기자
못차리고
금태섭
들자
성소수자
이문
폭주
##패션
적으로나
무슨죄
다니엘
지켜봐야
시교육청
동족
허다
##1조
나라꼬라지
100일
둥글
국회법
4000억원
고영
안치
자라고
지팡이
적폐세력
희생양
##ther
하지않고
##포스트
##ember
덤비
잃는
##미팅
다가오고
개명
잔류
포근
말살
많았는데
뽑으면
장하
착륙
피워
지나면서
배우기
간곡
빤히
퇴직연금
##놀로지
목욕탕
고창군
60년
##중립
오물
즈그
9개월
극대
저쩌
##품목
샌드위치
이진
중등
겨냥한
가겠다
시민의식
남양주
종편
떠올리며
엔지니어
covid
부시장
##하겠다는
##49
하회
핵개발
아니었던
맥도날
만루
수뇌
원하지
다정한
다윈
##룩한
생수
##도상
기가찬다
미약
바꿨다
yj
국민은행
세월호때
mod
못하겠다
행정명령
이코노미
면죄
양현
한국관광
바꾸기
오리발
숨통
효용
##소릴
받는다는
아모레퍼시픽
때면
로컬
바우
##민정
부귀
총출동
시뮬레이션
같긴
근래
동탄
면도
바라며
멈췄다
##십쇼
their
신라젠
고칠
면세
##만의
않겠지만
세워야
##료품
노숙자
양양
하는거고
이룬다
있는듯
7위
정신상태
한척
눈여겨
18개
깨끗한척
할라고
흠칫
##ated
아유
베어스
직급
아메리칸
전기요금
근황
바라봤다
줘야지
초연
깨닫지
까면
##교육원
극좌
##만원대
이현
##은데
싶어하는
삼일
심야
미국산
맞춤법
선우
##린내
묵인
숙련
갈기
겪을
##의인
##주실
괴롭히는
낄낄
등용
리니지
##대밭
국제법
vip
##해준
##스톤
und
코코
콜롬
찌르는
식품의약품
정비사업
##부턴
입주민
럭셔리
없앤
인선
줍니다
돌아와서
릴레
화끈
##태세
트롯
재산세
팔짱
##부탁
돌아다니며
탈북민
글쎄요
자해
어렵지만
##들어서
인걸
제비
주나
환한
됨으로써
두터
하찮은
영업손실
나요
너만
##해체
##ox
##쓰기
아는가
##인지도
##놔야
받으세요
수돗물
마블
평민
국가원수
듣보잡
##주는것
될때
실태조사
말미암
카트
혼잣말
박대통령
재치
##있어라
##공공
모질
안하나
열거
##거리던
못이
연산
16년
전한
조져
궁중
할거면
##계속
##검색
유심히
##파워
쓰지마라
새다
직영
##당께
##추세
만이라도
김연
난관
감싸는
9도
좁아
##까진
심플
##여기
##하다니
아사히
동산
BC
미르
별짓
##출소
다국
경제보복
##군대
들여서
##싸게
##도장
공모사업
hj
으으
기가차
이세상
다르지만
따위는
가려면
못보
##수영
##일체
전화기
묘지
웨스트
제약사
화성시
본점
저따위
일말
징벌
여직원
출품
나라다운
극한
뒤진
십자가
캄캄
경제위기
왔으면
울컥
이었는지
렉서스
##심원
##베충
막바지
재조사
나왔다고
카이사
##유발
##절기
##str
50억
될텐
알권리
자그
탈피
##된다는
달라졌다
로드맵
##경이
##거리다
바나나
버터
##겠노
주택담보대출
##상공회의소
세션
시댁
사니
서고
##제안
덧붙여
취임식
공예
않고는
눈알
몰린
조개
##37
황태
살만
시황
##티콘
정부서울
제주항공
웃음소리
기병
루머
정동
##러닝
##드름
##IS
알아보는
낳을
이어진다
법적
알리바바
골짜기
바이어
나왔을
IS
방산
자서
선후
최성
물놀이
에비
위급
치료법
들한테는
왕래
농축
부축
정부서울청사
100만명
나뉜다
경합
중성
충청도
마시면
조력
##글라스
139
상보
##몰라
##컨설팅
실무자
다독
수억
하는척
인간쓰레기
되었으나
사업체
장난질
지긋지긋하다
주중
파주시
느껴지지
공시지
부조리
신사업
상황실
였나
팔린
##많아
해주길
복잡하게
##갑시다
##쿠폰
견주
밀도
산맥
##폴리
기내
아스트라
##IN
연방준비제도
오오
해줬다
가져와
UN
비둘기
##기술센터
ㅆㄹㄱ
일평균
이었음
부도덕
과반수
돌고래
저새끼
##서민
바친
##우승
도쿄올림픽
장대
전남지역
최고위원회의
부르면
불쾌한
빙그레
신동
반반
오키나
드러내지
순순히
pj
닛케이
되어있는
마이크로
신산업
##메이트
##ict
거라는
명언
내려가는
분통
종가
고객사
맞벌이
매스
멧돼지
##아니면
풀어야
한국산
한국기업
25전쟁
과부
5000만
이티드
##다툼
##입찰
브랜드명
2000명
나사
천만원
뒤져라
채식
경기침체
거래처
가까스로
완성도
못생긴
일본기업
개독교
##졌지
이해하고
우주선
고갈
당겨
사뭇
흐리고
바라본다
에이션
진지한
같을
손잡이
##있는게
##수원
라는데
전매
##파운드
손질
하거라
##루미늄
망원
안그래
지돈
철폐
출격
2달
사업부
견고
닦고
인증샷
남한테
쾌감
한국사회
조국가족
미쳤구나
6000억원
문단
##그제
시장점유
못받고
4000만원
오케스트라
##스트리
##라고요
먹방
제제
주접
초코
후지
##천사
삶은소대가리
들께서
챔피언스리그
갇힌
그칠
되었을까
떠밀
연주자
타기
없었어
로보
야스
##싸고
몸무게
사먹
사리사욕
낙폭
청나
평면
사상자
못해요
오디
##하군
바글
의례
선고받았다
나몰라라
봉지
수줍
순종
지라
판치
2003
기관총
닭년
웅장
##할땐
##신도
된지
메고
원상
여행지
##거장
##1억
##ㅇㅇ
우수사
##장려
싸이코패스
엔터
중환자
촘촘
##회로
관계부처
나르
만장
자태
다스리는
속히
외로
위해서라면
여튼
##드네
##공기
복부
양당
##는디
##자랑
회사원
심보
##이사회
같애요
어려운데
나뭇잎
동백
봤나
이형
간략
사당
돌아다니는
균열
시초
있으리라
농업인
가락
자괴
헤르
달라서
도로교통
구는
배짱
비축
함대
##주점
끝난다
리본
야합
실수요
##도사
계약금
신성장
요런
강렬
로열
있은
##았음
경제부총리
되겠지만
질려
이리라
공매도
르노삼성
##신자
되는거다
보내자
연합뉴스
홍익
##연도
선두타자
갑작스럽게
숙주
노스
몸집
있겠죠
이신가요
꾼은
산수
수용소
경복
문빨
일처리
받은거
나올까
으킨다
6000원
공관
넣어야
노친
있으면서도
한문
한분
##비례
못했는데
3국
can
자숙
패소
##브스
세미
##ild
##였네
##번지
##보증금
고혈압
Se
니트
라와
목줄
미간
##종양
##연속
어따
정돈
##바운드
내담자
청와
폭언
들었는지
##상사
##악산
되었다면
기왕
초창기
돌봐
터미널
##로직스
거짓선동
헤엄
나온다고
범죄행위
안되네
뭉치
퍼졌다
홍길동
고군
형이
##내면서
마십시오
토니
황소
거짓말쟁이
여태껏
되긴
젓가락
##관찰
##존스
여타
해본다
믿기지
재외
100프
인천지
무작위
연세
궁금합니다
겸허
률로
앵벌
얻는다
피땀
##해봐야
##특기
아니어서
제10
성명서
담합
129
최고위
매립
반군
치른다
##많네
##자너
서울시교육청
이토
집권당
우리동네
아이유
땜시
시합
이양반
한단다
제네시스
보더니
페트
노을
추행
##나도
##nc
사투리
##우한
용품
한끼
계파
파키스탄
어설픈
곰팡이
드네요
팬데믹
하겠어요
##총생산
##oup
몰표
감형
감내
겪게
얘길
한기총
삼청교육대
시방
가벼워
구민
외치던
7대
드려
했음을
##m의
직격
받았으며
4주
전화드
주는게
되어서는
##amp
뇌리
쌍방
종전선언
실속
할거다
성대
업자
##컴퍼니
##는거는
재무제표
ㄲ들
몸속
높아지는
갔으면
라틴어
도도
증원
미쓰
쯔쯔
아무데
떠나기
와이파이
억누
님아
쏘는
퍼즐
각별히
무색
찼다
##봉쇄
##랭킹
저작물
거기다가
##재원
화이트리스트
개회
##만들어
배틀
심도
멤버십
##바르
##라이브
훤히
##데로
괜찮을
라이온
부적절한
이켜
##폭동
이국종
서현
수하
흡입
##왔다는
일뿐
##왕국
sa
벌거
부역
##소이다
##제네카
녹지
중용
끊었다
성평등
##졌으나
돌려받
아테네
잔재
내려라
음모론
펜션
2패
번복
하더군요
##소음
2030년
블라디
개꿀
움직이기
9단
그로
##간접
농림축산식품부
권대회
##함으로써
안하지
##끄러운
프레젠테이션
##ike
공습
시력
핵폭탄
##세라
흘러나왔다
되어버린
고루
##법무
공정거래위원회
답글
##갛게
Ex
내놓는
끝낸
야망
없잖아요
희안
##줬는데
국무위원장
남녀노소
스톡
폐하
##기라도
가열
돌았다
스마트시티
대유행
반동
##한텐
##홍어
인권침
애로사항
엮어
왜그러
바라보던
세율
Ad
김명
##비트
10회
빠져나갈
안하는데
##가공
하시는데
먹다
##가중
형국
녹취록
죄앙
##연령
이러지
꼴페미
##니얼
극소수
김홍
훈계
##😡😡
장가
다르기
알겠지만
##IP
##송이
난처
밀린
비공감
난동
지겨워
버섯
원서
드럼
자명
걸어갔다
나눠서
3호
##애미
고령자
수신료
사본
헤어진
##을까봐
였네
희한
100여명
그랬지
부메랑
개돼
꿀꺽
아니라도
가상현실
##도아니고
무수히
반만
영변
##3만
##면접
하도급
법조계
먹으려고
버핏
죽겠다
##1만
##불량
##irst
군정
무술
아수
900
안써
##조회
두려워하지
모함
빠짐없이
열지
였음
이타
##실태
Ed
안마
토사
잘하는게
봤던
육신
##리가
주고받
까도
꽃잎
선인
그런걸
지식재산
숨소리
접전
##집값
무상급식
화물차
십년
해나
##치듯
알고있
공소사실
차갑게
생식
월남
마담
어쩌다가
리튬
산산
쇼트
##간거
##6만
##민다
국밥
용인시
쓰나미
인터내셔널
쓰인다
##한심
##Id
##ㅉㅉㅉ
이산가족
샐러드
영영
##죽음
들어줄
나오는지
25명
아우르는
고딩
잡스
활개
##혜선
##악질
##분리
Europe
##지심
격렬한
독단
여편
만들었고
진행자
챙겨라
개한민국
정석
샤넬
자구
저여자
바람직하다
1권
##진창
지껄이
작지
##주석
##동아리
스위치
싸워야
Pl
농작물
입단
##오줌
처넣
##킵시다
배불
벌일
##들이나
되었나
제작자
##ution
외환시장
7기
##수련
두말
짧고
여실히
장만
않았으나
하지말자
그까
김형
##게이
##테타
##지않다
선호도
##민원
이중인격
아니었나
붉은색
늦어
체내
의료비
다르면
형수
일본정부
패딩
아니하는
이중성
전방위
##임명
##공화
쌍판
##보던
되지요
됐냐
경제지표
##려야한다
가리켰다
치루
17세기
##관리자
주시겠어요
아스트라제네카
time
군부대
은수
직계
##ler
끼칠
맺는
##사면
##할건
플로리다
5부
논어
연면
의원실
추진력
set
서랍
##생제
##기상청
발끝
독립유공자
5가지
시총
원하
중전
컨텐츠
##우려
##cept
양형
##iel
콤플렉스
##요법
##주던
단죄
서장
##보훈
테이프
카운터
열여
##프게
11만
직진
느끼기
초나
투성
금융상품
런닝
출원
여러번
반기문
155
해결해
뻔뻔함
기용
산골
하급
##킴이
폭넓은
사은품
김호
배가
선다
##신당
농약
함락
##마감
난독
숙종
구구절
발암
쏠린다
내려앉
##가봐
##관심
이었네
딱지
유은
구조물
났는데
일차
계십니다
분탕
잡히
친족
택배사
몇푼
##대처
##수첩
들만이
납세
싸돌아
많이들
##나라로
홍보대사
불균형
자석
이뤄져야
지랄도
선방
진위
cons
거임
배타
학벌
144
쓰러졌다
소나기
서남
접고
기저귀
구인
못알아
10조
주게
##중개
전정부
코리
##오늘
같아서요
1절
##세우고
##우회
##모금
##법령
께끼
##버림
있는사람
보트
비누
치르는
할만한
##가없네
##죽이
방류
엄숙
##나베
6시간
않겠냐
진수
패싱
주어지는
##나네
스러웠다
자괴감
국가보안법
수익금
이닝
알바생
your
##넥스
있는건지
사무소
데도
순전히
기업가
저널리즘
저력
##남기
세워진
##95
##학술
##주는거
가출
땅콩
비해서
내력
확연히
##오냐
대열
적나라
효자
평창동계올림픽
##구장창
사는지
CD
뒀다
속고
후방
##구제
##수습
##ley
7000억원
##레스트
쏘고
울면서
##을거다
어리둥절
일과
하신다
끼야
으휴
##과점
갈아치
상장사
떠서
중권
어떨지
순시리
이조
투자유치
전문의
마우스
표적
##데시
##치료제
미시
##디자
닫아
로에
알루미늄
역행
바라본
어벤져스
개화
뽑지
잘하네
뻔뻔하고
작위
sky
쓰일
4학년
딛고
한들
교육비
올라가서
##aper
직구
혓바닥
##렉터
##ons
서한
##개돼지
할까봐
fda
루트
안식
스토리텔링
1곳
1만명
경미
괴뢰
흘러가는
신한금융투자
로라
이었기에
올랐고
사백
진핑
##없어서
들었다고
강의실
조원진
맨체스터
거치지
마케
##금고
ebs
##2억
빈소
##구청장
##갔다고
##기는커녕
fifa
보이면서
##ourn
6대
상납
##소위
끝나자
제기한
프리랜서
아이패드
영호
들이라면
이슨
개나소나
맘껏
했거나
허둥
##였어
보고싶다
못하며
off
will
퍼진
아바타
CCTV
알린
밝히며
알렉산드
실외
갈아입
늙어서
##종석
15도
까다로운
맛볼
손끝
모였다
세계인
출입국
하심
1무
넘겼
들끓
국사
배꼽
드러나고
김부
이뤘다
1945년
##지진
펼쳐졌다
빼박
##햇다
미제
얽혀
읽으면
배신감
산학협력
이관
달게
베개
세키
있으니까요
무기고
황당한
퍼스트
##이식
다른거
정신줄
세라
##협회장
수목드라마
돌아보고
받아들여야
70년대
누님
비친
일감
##inc
##발표회
##수급자
##ㄱㅋ
완벽히
소급
벗어나기
정인
듬뿍
띄게
keb
가하고
씨름
##TA
14년
재계약
##싶어서
그렇게까지
출연진
##한거지
하질
아니나
사우스
압색
##루트
브래
해적
##용기
##오네
명단공개
교단
스윙
지폐
가봐라
못하기
에따라
있길
##하시네요
싸우지
공인중개사
동계
##란스
들어가게
아까워
이력서
kb국민은행
##예정
205
없어지면
실업급여
국화
반입
수칙
유부
유례
예비군
쉽사리
얽힌
##yn
겨누
국책
##2만
##바이스
물기
##부르
##드리는
정권잡
그럴수록
당면
승격
##프리카
라고는
끼니
코딩
찾아갔다
김현미
일동
파르
##남미
##진대회
##대접
문무
손씨
프리미어리그
낭독
매듭
먹어요
일손
##계절
##분배
내팽
혼수
흉노
갑작스런
태권도
같으
##넘들이
울며
##실천
가져왔다
##되냐
TK
뽑았
스리
연희
의복
해찬
##써라
쳐다보며
하것
전문직
에티오
##현진
##수거
휴대전
시중은행
1원
앞길
눈가리고
라라
무위
용사
##난다고
18도
에서야
첩보
##안나
개막전
동이
국가기관
내려왔다
끼친다
잇달아
조경
차감
이길수
민주평화당
기강
##특보
된장인지
##강수확률
있답니다
##왔을
깨어있는
어수선
체인점
낱낱이
울지
##아메리카
##선수범
노벨상
5세
사옥
커튼
키웠
풀기
##이구만
##블로
경치
선례
치우고
##둔다
##설턴트
586
구제역
볼만
안듣
죽었다고
전세기
결별
해외시장
어쨌거나
억대
전문점
위해서였다
kcc
과오
정치권
그림책
대출금
##특례
피해의식
개발사업
도와준
##시켜야
당파
##짜고
없는듯
바꾸지
124
특징주
##공대
app
Bl
난장
니덜
악당
안뽑
호통
7000원
야마
##이체
사이드
모차
본보기
돌아보았다
문자메시지
매직
에서든
##ital
냉전
마인
뺑소니
##문명
##연하게
남길
다치
돈독
벌기
오시면
보이스
##itt
홍영표
죄송하지만
기우
믿었던
밥값
정몽
##무죄
맞이한
성우
시부
원재료
이기심
블랙핑크
고약
치로
보수정권
기초생활
조망
##놔서
##둬야
도와주세요
낙마
취하지
호국
##나비
보니깐
잔당
##주시고
##저곳
밝혀질
하동
##자라
##절감
2권
드려야
뷔페
##하는가
금융사
움츠
익혀
##76
의석수
대우건설
속임수
어이없다
수고하세요
##ga
능히
##리조트
미분양
타면
풍력
##배달
커피숍
os
들보면
신진
일용
나누기
깽판
혼잡
페미니스트
박용
짝퉁
ㄱㄱ
백리
##곡선
끄덕이며
풀리지
##대깨문
연구결과
없을듯
##지방법원
낮잠
##😂😂
거두어
일기장
시뻘
그랬냐
개가
한건지
화천
검이
분란
##브로
스타디움
4종
남친
주구장창
추월
##지옥
##롯이
막대
약관
##제당
좋을듯
인과관계
알레르기
단거리
성큼
해주실
변제
Ind
하셔도
##때기
진공
##로서의
꼴찌
스텔
##겨울
##쳤는데
댓글러
맞물려
발바닥
부결
낳았다
재질
다를바
한일관계
구명
##구도
하는지도
저정도
청계
홍삼
##ba
2백
선율
수백명
구차
당하
따서
스노
열폭
##소유자
깃털
돌발
판도
상부
트윈스
자급
##1호
##지원사업
5곳
튀는
잡음
전량
##38
##폐쇄
하느냐에
맞대결
순응
툭툭
##대네
##였다고
동호회
##오자
간신배
과속
장구
저런말
##수장
##왔네
이하로
보여주기식
wti
##서의
낮추는
구직자
나니까
허덕
##날레
##ural
국무장관
유로존
오보
1세대
엣지
남침
닿지
뜨거워
##비상
##집중
튼튼한
광진구
벽면
여긴다
즉흥
2001
##시끼
이하도
레몬
##수학
바람직하지
우동사리
솔선수범
여친
위메
힘없이
##지냐
가르칠
시공사
않겠나
대웅
독수리
부릴
사절
##단절
때론
##물가
한국남자
복잡하고
군단
예결
오스
##라고는
##회생
문파
이라는걸
기대해
인사말
했을텐
운전기사
수비수
스코틀랜드
알겠어요
주고받는
노무현때
University
먼바다
부사
##등신
다그
변모
아집
##에너지
하였다는
##시라
추가경정
똥칠
무거워
비통
##충분
현대차그룹
##호흡기
세간
어부
##지는거
구구절절
##있는것
ㅇㅈ
됨을
아슬
환희
만든다는
학창시절
김건모
멍하니
학생부
못하는게
그리도
발라드
이태원
self
젠더
갖기
구금
보시고
넘버
형체
##0원
억지로
네게
해먹고
##인치
즐겁고
분화
이곳저곳
안타깝습니다
미세먼지는
아부지
주정
##피자
##여만원
##백신
매화
3권
재위
##다발
##갔다가
13만
어울리
미용실
ost
못봤
##현안
##항목
줄어들었다
국공립
포천
##않나
##크스
##농민
들어설
떳떳하면
학회
광화문광장
웅크
##경력
##ors
가실
걸치고
떨린다
벨트
섬나라
도요타
불리는
정현
카자
국가경제
전폭
100주년
고요한
느닷없이
싸질러
주길
지울
나위
차용
회복세
구토
렌탈
보습
본명
양대
해시
우선시
naver
곳간
말끔
##름한
them
아파트값
말아야지
같지는
준법
12개월
통해서도
무분
선순환
엘프
읍면
지켜본
계도
##대던
안만
치면서
##조례
##안간
시켜놓고
교섭단체
알고보니
울릉도
교토
##인다고
도표
싶은가
고용보험
##프라이즈
증발
우려했다
아우디
아끼고
Sch
몇배
주총
타구
탄성
##어버렸다
죽여라
가본
넷마블
요컨대
Le
한산
도려
##창호
비례대표제
입소문
네팔
정벌
##bm
교화
변할
사사건
##서쪽
자긍
남아서
익산시
좀하고
##얼마나
바미당
김의겸
7조
수의
##화장
##잖니
이아니라
##가는것
흩어
조국일
북이
사관
수납
칼리
상원의원
##웍스
메이커
님들의
가파른
선체
연맹
자릿수
아무렇게
원점
##소문
설날
줄게
건가
받는거
성태
연우
##어어
대해서만
##ough
통틀어
##살림
찾아보기
확진자는
만류
서비
##쳐먹는
정찰
피의
숨긴
청담
##다닐
돌아가라
ro
꼴깝
나네
승승
##만큼이나
pc방
바랐다
##대면서
pd는
바는
차주
기업은행
연비
##교차
##귀신
한거고
##확진자
팔꿈
그이
쓴소리
알겠
요번
트윗
##배출
주체사상
던질
##육성
드러나지
파병
침상
달라붙
대청
##강국
주요한
자녀분
부르주
기류
보잘
열병
##든데
한진해운
살아야지
움직인다
빽빽
##국립
지키며
##촛불
움찔
임이
안정성
어촌
그리운
시킨다는
밸류
청도
할건
자유한국당
피해보상
소년법
ks
금성
혹여
##토착
두려워하는
부산시장
송환
합쳐서
##ale
public
살라고
##장터
##국제영화제
6000만원
스러울
막연한
함께할
부적절
##가드
##가야지
유치원생
냉소
비준
유화
챙겼다
##지를
돌려서
정부여당
아베야
겸비
실크
##간히
시켜야지
전문성
우루
보고했다
계약직
플레이어
발각
저명
되어있다
8000억원
단교
성수기
자산관리
초당
따라서는
간행
##골목
시종
##그랬
있을듯
##리스타
##인민공화국
오자
토론토
데카르트
쓴거
암덩어리
오는데
##재인
##ange
힘드시
어울릴
슈퍼맨
놀라고
자민당
경인선
그친
상체
원안
전문인력
미루어
차리세요
재구성
정파
##설립
나왔던
방주
주교
이석기
개솔
배구
찬물
총질
기다림
동작구
까먹
혼내
그렇듯
고분
놀라는
##민심
1등급
cu
오셔서
회유
순리
죽도록
노회찬
채권단
행안부
컨벤션
##서방
딱봐도
한영
##go
도와드리겠습니다
몰리
진안
화질
##팔고
안토니
뵙겠습니다
의왕
들락
울분
##지배
col
특가
페널
##나오게
기동
내미
손아
창단
##니스탄
평창올림픽
##카운트
uae
경솔
껴안
땅값
괜찮습니다
공휴일
보이네요
죽여도
가소
맺어
이율
##몰아
##보임
##스처
경작
##로봇
머슴
짧아
이야기해
3당
배기
픽업
와서는
##할걸
cd
그리는
휘감
##리테일
가로수
승패
##있네요
##최악
땅속
신격
안쓰고
알겠어
애처
##주어야
##내미
##약국
안하무인
pos
견지
cont
비디
사병
돌아가지
대진
허우
##재무
##선상
써야지
19도
137
멱살
임대인
삼을
##행진
핏줄
해나갈
##아카데미
잡아다
두리번
##수령
##태현
mvp
역병
파편
다니는데
거거
같은건
범죄사실
##해주지
다름없
보느라
환전
급속히
두어야
바랐
##이미
웨어
잘되는
중요한건
증식
질이
배우지
there
외치면서
중소벤처기업부
죽임
##구정
긴급재난
빼앗긴
대낮
오케이
있지도
피라미
한테서
책임져
3법
코믹
온기
keb하나
빈민
빌린
정신분석
수탈
탄산
##3억
##레저
없어진다
80년
적입니다
일류
##기때문
##분투
##블러
기약
뉴턴
통학
엉망진창
##부담금
정치질
정상회의
아놔
영부인
청화대
믹스
##프로젝트
늘리기
층간
해주시고
이자율
넘겨진
논다
믿으면
텐데
긴밀히
작태
정한다
출루
##올랐
식감
없더라
제도개선
day
책자
알고는
##ister
##젤레스
딜레
##진진
생기게
말이
흐르
그었다
아프면
대선주자
일컫는
가칭
도화
성자
밝혀지지
삼성화재
7세
가혹한
통용
##겨라
##ica
핍박
버금
25개
익힌
나라말
살아남은
3차례
mlb
시리
율주행
30도
재회
기일
##는대
##코어
한국토지
돌려보내
시니어
##묻은
싫어한다
반정부
좋겠는데
##미르
##슬리
늘어나면서
이겨낼
Str
제반
보고만
원산
전성기
##벗고
처치
으로든
논산
쓰니
##설정
재정비
##원자력
교내
마취
삼만
하려나
스럽네요
젊은층
독립운동가
퀄리티
자긍심
귀화
있었냐
대미
##역학
##각서
##센티미터
서든
##들며
그만한
이니깐
모차르트
보성
##6조
고통스러운
노랑
무급
백의
##간섭
##갔습니다
기대치
##이틀
##마마
니콜
##지경
##차지
뒹굴
묻지마
영암
일해서
천도
교육기관
바이올린
경질
됐나
##입법
만들게
데스크
한한
##블루
걸로
저렇
첫사랑
다이빙
84㎡
기뻤
나직
되시는
망하
몹쓸
서성
폐해
회개
##주류
구십
##취득
덕목
##유형
주저앉
잘된
##루살
##84
보험회사
##여정
##카는
##프다
관공
역력
##삼아
갚을
맡기는
헛발
##착취
복리
쓰려고
없구만
##수정
##ool
해야하고
출근길
농단
생긴것
못배운
영유아
초토화
네오
마시길
원년
도의원
근대화
스케치
감성팔이
뇌구조
##ents
모자란
종북좌빨
신입생
에티오피아
연약
포르노
준다면
지적한
시끄러
닥쳐라
원효
전셋
초인
정보보호
강탈
짓을
어워드
주지사
##머신
한국판
알아봤다
받으신
기형
주요일정
떠나야
평화통일
장난치
시간문제
싹쓸이
급속도
충신
##노력
면치
##권익
이루어져야
끄집어
정할
##개판
##났어
##기밀
##불쌍
가지면
머가
베타
북적
뭉클
읽어야
##사인
무시무시한
빛깔
타파
트와
##bi
경복궁
떠난다
받으니
##uct
한국군
남기지
혜진
##onom
시켜주는
자르
##처음
##목소리
전라디언
ㄱㅅ
##ener
임시국회
동종
고등어
시키는게
팔아먹는
게을
##덜미
명문대
중남미
##갔지만
##분할
were
##함도
##후손
녹여
##치우고
##상황실
지켜보던
▲서울
박찬
실마리
촉각
##하다면
이경
##팔아먹
최고급
나아질
그러니까요
보건의료
드려요
사려고
국대
알았으면
현관문
명료
서신
##가인
##300
##집고
##보다가
##🐕🐕
골든타임
예스
##매고
대할
자막
어려워서
방제
추는
오토바
구한말
우수사례
##토피아
##사옵니다
##js
아이오
빡빡
##루살렘
3건
입김
조심스레
오락가락
식용
##습니
결승전
청와대로
센트
##00만달러
ac
##려는데
##연상
블랙박스
잡초
좌천
##land
아니가
걸려도
다져
차린
어쩌지
갚아
고품질
누비
사용료
##어울
이해도
보였지만
##낸셜
초안
하기보다
만들어냈다
신고한
3승
bbc
상전
입장문
8000만원
승승장구
알어
들이밀
코스닥시장
완주군
몸담
세조
읽는다
##제리
##특정
이라는것
학습자
꺼려
십만
파파
386
일신
경로당
사사건건
들지만
식욕
##수가
키움증권
야수
읽으면서
꼴갑
##드레
▲오전
거치면서
안해서
이일
##떻게
소개팅
##ogr
불공평
##무도
##포털
##맞이
놀라울
오크
강원랜드
어우러진
반역자
방북
아니냐고
고질
##민주화운동
대머리
로렌
이겠다
주딩
참회
나라로
이번정부
어려서부터
Korea
격추
후작
이지랄
opec
##거니와
전입
밀어부
A4
군복무
##베트
나라를
없앨
떨어지기
8번
왕권
짓말
##플러
##최대
잠복기
교만
다하네
도성
을해
틀리
##상업
드물다
튀김
##페어
속시원
마스크도
인수합병
데뷔한
뒤처
있군요
적으론
##언니
가엾
대다
송이
생기기
당뇨병
jo
소생
어우러져
1달러
호우
##나불
유통업체
대내외
갔고
되잖아요
쟁취
가진자
낙타
농심
늘면서
딴지
맞잖아
주심
##좌석
##바가지
고성능
페널티
받냐
봉기
이춘
당직
불법체
연기력
혁신도시
역겨워
민좆
아몰
##인수
마교
주스
없을것
하이라이트
창시
##롭다
비호감
어학
이양
##폴리스
##훈장
에잇
철밥
했었지
##측정
##arket
재해석
##yright
브레
식기
달려드는
생존자
##달리
사라지게
##아프리카
동승
듀얼
식료품
길바닥
리포트
조광
휴직
교향곡
more
버려진
비참한
매거진
울화
닿을
세컨
##처먹
##mc
이어도
갈증
조수
##운전자
팔다리
116
##부지검
임에도
##대식
늦어도
습성
타임스
이랍시고
입힌
##버섯
##교육지원청
박사학위
##IT
건드리지
받들어
예절
고조선
구혜선
독성
마니아
못할망정
크면
##엔지니
내셔널
페루
##배럴
대로라면
비현실
씩은
##위크
신경전
미쳐도
육아휴직
##글로벌
식품의약품안전처
번뜩
전생
절박
쿠키
##렸나
있어서다
건설업
이럴줄
여적죄
##치산
일관성
##오카
국내총생산
살아남기
위약
##헬기
아니구나
성종
관리비
짜장
##충남
시행착오
눈초리
병기
볼턴
심성
##개시
##까지만
149
지분율
##계약서
장본인
Man
사령
##됐네
##애들이
찾아보고
잘될
정희
탈환
떠올랐
빼먹
##강간당
문준용
비약
수탁
식은
##일레
##계발
##유학생
말구
상봉
정월
내연
당하면
어떠냐
요직
춘천시
트리플
##범죄수사
몇십년
남학생
리치
요즈음
저울
##동지
##킨스
##하는거지
쳐다보는
웃긴게
좋아라
사는것
군기
드시고
대북정책
테라
현행법
음료수
올스타
천체
##현동
##물자
##석방
##메드
아니겠는가
맞췄다
문지
소견
어는
패망
대주
중생
중기부
##gi
그럴싸
안들면
성황
기대어
지나갈
acc
##3개
19명
##주택공사
균등
만취
모티브
참기
흠뻑
##정은
##녀석
볼륨
##한가
싶은거
화려하게
금년
놓친
애꿎
인이나
행정기관
여지껏
만연
보병
##성애
이런글
주요국
정신차리세요
국론분열
장흥
좋긴
##사슬
168
에너지가
##생겼
모아놓고
학습지
죽이려고
큰길
서울고법
발리
병장
짜는
##캐스트
한국민
미국과
금융권
끝낼
뚝뚝
맡을
1백
실드
미쳤다고
은밀한
핵무장
허망
##들일
##와중
##멍청
사리분별
이봐
창가
적립금
##변호
int
널려
##으리
##펙트
남북한
라오스
막가
얘긴
좋겠지만
사용량
230
요리사
3000명
새삼스럽게
면책
성접대
1950년대
b2
결선
윌슨
대응책
##언제
##창구
편의시설
박스오피스
깜박
층에
##였다는
멜론
대검찰청
삼키
양현석
비과세
향유
7000만원
폴더블
됐으니
빚어
융통
##마누
책임져라
거인
최정
돼지새끼
썼던
##사체
안간힘
사는거
펜스
##탄생
100대
받았으면
천민
아니까
행정소송
롯데월드
빈집
상경
살아가야
쪽팔리
##출연
176
호의호식
켈리
납작
좋을지
견학
세척
흔들리고
꿋꿋
대감
잡으려고
지참
고을
##위협
주선
홍천
뒤따라
랍니다
엠비
피카
##놓지
##분담
금산
리뉴얼
날카롭게
만수
상설
접점
청바지
택한
##파는
노린
문항
같으니라고
점주
##분위기
지났네요
5급
사기업
환매
##fr
봐줄
##활용
충전소
풍습
하랴
##self
##빨아
##lect
3장
퇴치
##겠단
고용부
전월대비
합치면
25분
마시지
천리
##영수
내려갈
덜떨어진
싫었다
쯧쯧쯧
ds
깔린
넘어가지
갔다고
입혀
##자위
##을수록
##편의
##웠습니다
잡아넣
##안전대책본부
하면은
좋은지
답지
피했다
2차례
라이언
면죄부
##por
프린트
노원구
6학년
##관광객
John
##erson
일임
무너졌다
윗사람
##카스
문화재청
쇼케이스
쓰이
원주시
##페스티벌
보일러
reg
뜯고
주치
신한은행
일식집
될일
배어
##50만원
절실히
별걸
폭소
였냐
난폭
등락
찍는다
토목
##rit
기다리며
그제서야
그정
머지
##테크노
두분
미묘한
이겼다
##생충
p500
부동
쩔쩔
피임
12시간
이해해야
폐허
기반시설
만났던
50개
떠올라
신년사
박고
경제파탄
필두
##맞춰
지능순
tk
사익
##상위
자세한
몰아내고
불발
보유국
가볍고
문프
아웃도어
##ific
도련
하류
##비밀
들어보자
##ins
뱉어
산청
열심
##9조
##ger
넘겨졌다
같구나
내로
내집
##TN
##푸스
하시나
##문화재단
상관관계
##기면서
이래저래
막은
악어
책이
패륜
##로서는
돌보는
운세
##취약
빈자리
원코스
입니
칼로
링컨
커리
##세워
##익스피
##선사
##셨다고
되어가는
조직원
으이그
##측근
짓지
8위
발뺌
욕보
텅텅
붙는
산후
아는지
엊그제
은요
팬미팅
당해서
동월
말소
##미화
만들어준
안돼요
관망
자나
##디지
지역발전
보금
서니
지만원
##특별법
##걸레
##었다가
선택지
아들에게
쫒아
##하는거냐
사려
##소매
불확실성
독한
화신
하나은행
일어나기
##ions
연결기준
대학교수
pop
했단
##78
집합소
괴리
당해야
##합동
##라는데
##매각
적이네
꺼낸
발해
좋을까요
엄격히
안들어
앉을
청결
##자들
하는꼴
아니게
##alk
너넨
주점
축내
그르
전단
탄원
강동구
포옹
200여
22명
살펴보았다
GM
OUT
발화
봉인
인영
후련
##통운
##전방
##냈다고
미래창조
##플라이
가는것
걸어가는
인신공격
발원
별별
불릴
첨부터
##하오
##프린
##라는것
알려야
마시오
의원회관
40만
멍멍이
지주회사
디즈니
내정자
겁박
놓치고
반경
보탰
짱께
차서
한이
알려주고
정례브리핑
만요
보지말고
신위원회
약혼
##바글
찾아올
뒤편
강호동
##지키
##소사
##불법
건강검진
##aph
오거돈
샀는데
끓는
모토
산유
##해석
##병자
문제고
생중계
띈다
수족
이부
대기오염
난간
공경
법이
파스타
pre
맞아서
되리라
라이나
아니고요
받습니다
풀릴
두고두고
해볼게요
모나
##터널
##때매
##BM
어떡해
##new
한국지
살아나
내려진
대도
##일것
##같네
##궁금
##연전
##ature
Press
야생동물
같어
와요
##갈비
원내대변인
퇴보
##옵소서
빗물
##충제
삼성바이오로직스
건다
없기에
##방사
##예금
까지가
##할배
##말던
##산성
가하는
서북
무심코
선입견
론에
미스트
되었지
닐슨
사납
슈즈
조주
직인
켜고
야구장
뮌헨
숱한
##좋겠다
181
코디
##겠으니
들이는
권세
##아녀
아니면서
해야됨
##리는건
끔찍하다
가산점
짓기
##도덕
##립시다
ii
지뢰
##일비
조국씨
알았네
가로등
##복귀
폭넓게
법위
섣불리
소린
있더라고요
정진
##짱깨
##꼈다
뉴욕타임스
##아직
아닌게
inter
화약
찾아라
이래라
기다리던
거짖
##광역
말미암아
가오
낙후
민호
해악
암세포
##팍한
dmz
싸서
인화
절규
수백만
타이어뱅크
무릅쓰고
먹었는데
성모
##하듯이
다른곳
그만해
보란
##fc
그리며
안타깝게
어드
어긴
진급
##정책관
열세
##히도
##학파
##찬성
트와이스
하이트
##아슬
들어있는
한일전
##리온
##파서
김유
신경질
계룡
장터
##대나
리베
국민분열
##혔던
##기념관
흔들렸다
거는
##oi
##딱지
##자살
다졌다
비박
이뻐
제천시
제1회
nyt
영도
행한
아니었으면
덮으려고
천원
하부
1930년대
필리버스터
And
하믄
##슬쩍
쓸수
저어
처박
##싶네요
책방
화시키
나누며
tv조선
트로피
여혐
좋아지고
행정행위
다를까
잠자코
증빙
호모
##쾌히
갖춰야
관청
드렸습니다
쑤셔
들어가자
김대
있겠어
##만해도
##앙스
먹자
위아래
폐암
허니
##비중
연구위원
없어져
남북정상회담
몸값
징조
##불편
맞선
새는
초석
판다
살아요
##진술
##으로는
불러야
신기록
gt
아낙
##있어야
따라갈
##구호
몰아붙
펼쳐질
로스앤
가졌
잔혹
##건전
##번스
들조차
백일
날린
팔찌
25때
해외유입
6기
배드
158
공산국
##경색
우리정부
자카
##성향
##gy
자본금
의존도
당위
유추
##주니까
##거네
여기지
154
갖추지
횡단보도
맡았던
밀폐
외투
테두리
돌아보며
위안화
실거래
그러시구나
공교육
쾌적
한시간
##주겠다
##IA
##했냐
해지기
##알지
감산
미비
조나
##도없는
##팽이
그려져
Be
끓어
##단식
12도
기사제목
라디오스타
금기
따지지
승선
외세
##덕분
입장료
프랑크
다케
당론
주겠다
행위자
나누었다
계집애
불합리한
고군분투
잡히지
##시니
지나자
415
당권
유태
##ole
##키스
정권때
스페이스
빅토리아
2경기
기정
닭근혜
수모
화내
기업가치
인천국제공항
받으려면
소셜네트워크
SBS
가졌던
해놨
보내주세요
보여주며
초록색
분개
##제대로
올라섰다
도통
빠진다
4로
순국
아멘
keb하나은행
괘씸
만천
비빔
핸들
천진
##충돌
이라든지
최대치
몽고
왕궁
항명
##살아라
있다는데
진단서
교란
되라
않겠습니까
204
드러났
더없이
포격
털면
했소
##삭스
광주지역
달려들어
소사
모르니까
내리막
났을
마지못해
못했기
파헤쳐
튀어나온
숙인
영생
이시대
주니어
추앙
퉤퉤
##우수
##코리아는
박탈감
cnbc
갑갑
냉각
연유
스릴러
아무렇게나
똥오줌
주던
##제자
##엔지니어링
뜨면
짬뽕
450
않으려면
은은한
ㄴㄴ
삐뚤
참이
문화관광
##납부
아니란다
##그린
##위선
210
애꿎은
떠돌
##빠르게
묶어서
않겠지
왕이
##렸지
##식민
한국시리즈
시켰고
같으니까
고점
##테리아
해야겠네요
있었음
##기술원
전관
##put
블랙홀
미쳐돌아
노령
무전
예년
있군
쉐어링
양면
찍혀
있으실까요
4단계
안산시
##차반
##모어
##놀음
눈살
빚내서
쳐라
우리가
이번정권
집행부
예쁘고
로빈
아날
이십니다
존스
이라더니
루소
원하고
최면
##정체
물어보는
분담금
곧이어
딸래미
여주인공
오가며
##동무
추가경정예산
모태
유년
진기
풀린
헤헤
혹독한
연정
음력
혈통
깊숙이
낮춘
제보자
반죽
스커트
얹고
장작
##질때
##댄스
했던가
컨트롤타워
데다가
아씨
카레
그러네
비공식
아슬아슬
부름
##mg
본다고
티브
사회관계
tv를
##제일제당
다하
##러시
##메트
##잣대
없어졌다
될까봐
##였을
충분한
서대문구
느리게
밧줄
생겨나
아시죠
world
듯하다
라마
돌아가야
##남녀
모레
주시겠습니까
로스앤젤레스
꽃길
좋아지
미래부
날뛰는
갚아야
능지처
협소
##멩이
이런인간
연결고리
수입차
사마천
가는지
오두
최태
태안
합심
##오는데
의사협회
신물
이그
##싶으면
##맹이
##담당관
군복
했으므로
##다보면
##use
기자양반
현상학
비웃음
왕족
초빙
팔십
##사지
##7조
아니므로
나오는거
164
##관리법
일은
##우니까
##스카이
고취
들ㅋㅋ
잡으며
수상작
지독한
외계인
함도
##티노
세계사
내놓지
미쳤나
원두
의함
정열
크나
호프
##주권
스튜어
끈기
끼쳐
아쿠
장원
태운
##컴퓨터
##렸는지
##me
##분권
##추위
새하
함축
항생제
182
의정활동
느려
아첨
거동
계략
슬기
지르
##아악
자이언츠
##ournal
어데
예루살렘
오만한
특보
##라는걸
board
겪었던
유촉새
손아귀
노랫
어렴
##모든
##oto
감출
##렀던
받아먹
베테랑
##가장
##좀비
##00만명
노동계
중앙선
##담당자
공무집행
유언비어
곰곰이
21명
##문재인
뒤틀
미쿡
옆자리
퍼지는
자기계발
하였으니
##셔야죠
전씨
놀라며
문양
##절대
대대손손
##헬스케어
애당초
잡힐
출입문
숙이
응대
국립중앙
돌아다녔
한밤중
업로드
알았습니다
연예계
데스
이스타
##▲오후
여기서도
시발점
2라운드
번번
##경협
레오
으르
##정세
노려보았다
##누나
만들어내
가져오는
차후
행군
아들인
원대
천인
되는줄
다가온다
비싸서
외양간
지운
##의도
다른가
당연하게
